#ifndef SINE_2L_MODEL_TFLITE_H
#define SINE_2L_MODEL_TFLITE_H

/*
 Author: Mouli Sankaran 
 CAUTION: This is an auto generated file.
 DO NOT EDIT OR MAKE ANY CHANGES TO IT.
 This model data was generated on Mon Sep 30 12:08:38 2024

 Tools used:
 Python:3.11.5 | packaged by Anaconda, Inc. | (main, Sep 11 2023, 13:26:23) [MSC v.1916 64 bit (AMD64)]
 Numpy:1.24.3
 TensorFlow:2.17.0
 Keras: 3.5.0

 Model details are:
 NUM_OF_EPOCHS = 900
 BATCH_SIZE    = 16
*/

const int DENSE1_SIZE = 32;
const int DENSE2_SIZE = 16;

unsigned int sine_2L_model_tflite_len = 4304;

// Since the size is 4304 for this model the Tensor arena size needs to be
#define TENSOR_ARENA_SIZE 2*1024

unsigned char sine_2L_model_tflite[] = {
0x1c,0x00,0x00,0x00,0x54,0x46,0x4c,0x33,0x14,0x00,0x20,0x00,
0x1c,0x00,0x18,0x00,0x14,0x00,0x10,0x00,0x0c,0x00,0x00,0x00,
0x08,0x00,0x04,0x00,0x14,0x00,0x00,0x00,0x1c,0x00,0x00,0x00,
0x98,0x00,0x00,0x00,0xf0,0x00,0x00,0x00,0x94,0x0b,0x00,0x00,
0xa4,0x0b,0x00,0x00,0x7c,0x10,0x00,0x00,0x03,0x00,0x00,0x00,
0x01,0x00,0x00,0x00,0x10,0x00,0x00,0x00,0x00,0x00,0x0a,0x00,
0x10,0x00,0x0c,0x00,0x08,0x00,0x04,0x00,0x0a,0x00,0x00,0x00,
0x0c,0x00,0x00,0x00,0x1c,0x00,0x00,0x00,0x3c,0x00,0x00,0x00,
0x0f,0x00,0x00,0x00,0x73,0x65,0x72,0x76,0x69,0x6e,0x67,0x5f,
0x64,0x65,0x66,0x61,0x75,0x6c,0x74,0x00,0x01,0x00,0x00,0x00,
0x04,0x00,0x00,0x00,0x90,0xff,0xff,0xff,0x09,0x00,0x00,0x00,
0x04,0x00,0x00,0x00,0x08,0x00,0x00,0x00,0x6f,0x75,0x74,0x70,
0x75,0x74,0x5f,0x30,0x00,0x00,0x00,0x00,0x01,0x00,0x00,0x00,
0x04,0x00,0x00,0x00,0x3a,0xf5,0xff,0xff,0x04,0x00,0x00,0x00,
0x0c,0x00,0x00,0x00,0x6b,0x65,0x72,0x61,0x73,0x5f,0x74,0x65,
0x6e,0x73,0x6f,0x72,0x00,0x00,0x00,0x00,0x02,0x00,0x00,0x00,
0x34,0x00,0x00,0x00,0x04,0x00,0x00,0x00,0xdc,0xff,0xff,0xff,
0x0c,0x00,0x00,0x00,0x04,0x00,0x00,0x00,0x13,0x00,0x00,0x00,
0x43,0x4f,0x4e,0x56,0x45,0x52,0x53,0x49,0x4f,0x4e,0x5f,0x4d,
0x45,0x54,0x41,0x44,0x41,0x54,0x41,0x00,0x08,0x00,0x0c,0x00,
0x08,0x00,0x04,0x00,0x08,0x00,0x00,0x00,0x0b,0x00,0x00,0x00,
0x04,0x00,0x00,0x00,0x13,0x00,0x00,0x00,0x6d,0x69,0x6e,0x5f,
0x72,0x75,0x6e,0x74,0x69,0x6d,0x65,0x5f,0x76,0x65,0x72,0x73,
0x69,0x6f,0x6e,0x00,0x0d,0x00,0x00,0x00,0xa0,0x0a,0x00,0x00,
0x98,0x0a,0x00,0x00,0x48,0x0a,0x00,0x00,0x30,0x02,0x00,0x00,
0x1c,0x02,0x00,0x00,0xcc,0x01,0x00,0x00,0x3c,0x01,0x00,0x00,
0xac,0x00,0x00,0x00,0xa4,0x00,0x00,0x00,0x9c,0x00,0x00,0x00,
0x94,0x00,0x00,0x00,0x74,0x00,0x00,0x00,0x04,0x00,0x00,0x00,
0xea,0xf5,0xff,0xff,0x04,0x00,0x00,0x00,0x60,0x00,0x00,0x00,
0x10,0x00,0x00,0x00,0x00,0x00,0x00,0x00,0x08,0x00,0x0e,0x00,
0x08,0x00,0x04,0x00,0x08,0x00,0x00,0x00,0x10,0x00,0x00,0x00,
0x24,0x00,0x00,0x00,0x00,0x00,0x06,0x00,0x08,0x00,0x04,0x00,
0x06,0x00,0x00,0x00,0x04,0x00,0x00,0x00,0x00,0x00,0x00,0x00,
0x0c,0x00,0x18,0x00,0x14,0x00,0x10,0x00,0x0c,0x00,0x04,0x00,
0x0c,0x00,0x00,0x00,0x81,0x73,0x35,0xf5,0x27,0x00,0xc7,0x45,
0x02,0x00,0x00,0x00,0x02,0x00,0x00,0x00,0x04,0x00,0x00,0x00,
0x06,0x00,0x00,0x00,0x32,0x2e,0x31,0x37,0x2e,0x30,0x00,0x00,
0x56,0xf6,0xff,0xff,0x04,0x00,0x00,0x00,0x10,0x00,0x00,0x00,
0x31,0x2e,0x35,0x2e,0x30,0x00,0x00,0x00,0x00,0x00,0x00,0x00,
0x00,0x00,0x00,0x00,0x60,0xf1,0xff,0xff,0x64,0xf1,0xff,0xff,
0x68,0xf1,0xff,0xff,0x7e,0xf6,0xff,0xff,0x04,0x00,0x00,0x00,
0x80,0x00,0x00,0x00,0xa1,0x90,0x0a,0x3e,0xb2,0x6f,0xa4,0xbe,
0xd8,0xdc,0x9a,0x3e,0x5c,0x6a,0xf8,0xbd,0xbc,0x4c,0x3b,0xbe,
0xad,0x36,0xc3,0xbd,0xf1,0xce,0xa7,0x3e,0xb2,0xd5,0xc1,0xbe,
0xc0,0x00,0x02,0x3f,0xa5,0x3c,0x07,0x3f,0xe0,0xe2,0xb5,0xbe,
0x69,0xf5,0xfe,0xbc,0xec,0xbc,0x0b,0xbe,0x55,0x13,0x78,0x3e,
0xb4,0x2c,0x87,0xbe,0xb6,0xf8,0x36,0xbe,0xb2,0x89,0x6d,0xbe,
0x57,0x83,0xc6,0x3b,0xdc,0x3f,0x95,0xbe,0x69,0x7a,0xa6,0xbe,
0x61,0x82,0x44,0x3e,0xe4,0xe5,0x41,0xbe,0x90,0xbf,0x8c,0xbc,
0x65,0xd1,0x69,0x3c,0xa6,0xe2,0xb2,0xbe,0xf9,0x59,0x13,0x3f,
0x4a,0x8f,0x8f,0xbe,0xb6,0x91,0x59,0xbe,0xaf,0x99,0xf9,0x3e,
0xd8,0xf0,0x0f,0x3a,0xb5,0xbb,0x10,0xbe,0x5e,0x38,0x62,0xbe,
0x0a,0xf7,0xff,0xff,0x04,0x00,0x00,0x00,0x80,0x00,0x00,0x00,
0x7e,0x80,0x8d,0x3f,0x00,0x00,0x00,0x00,0xfb,0xff,0xf3,0x3e,
0x00,0x00,0x00,0x00,0x00,0x00,0x00,0x00,0xfe,0x67,0x64,0x3f,
0xe1,0x02,0x93,0xbe,0x00,0x00,0x00,0x00,0x68,0x8a,0x32,0xbf,
0x5f,0x4d,0x55,0xbe,0x00,0x00,0x00,0x00,0x82,0xec,0x4e,0x3f,
0x00,0x00,0x00,0x00,0xe4,0xe1,0xea,0xbd,0x00,0x00,0x00,0x00,
0x9b,0xd9,0x0f,0x3f,0x00,0x00,0x00,0x00,0x99,0x8a,0x35,0xbd,
0x00,0x00,0x00,0x00,0x00,0x00,0x00,0x00,0xe3,0xd6,0x19,0x3f,
0x45,0xa7,0x6e,0x3f,0x00,0x00,0x00,0x00,0x38,0x7f,0x98,0x3f,
0x00,0x00,0x00,0x00,0x6c,0x85,0x27,0xbf,0x00,0x00,0x00,0x00,
0xdd,0x1f,0x80,0x3f,0x41,0x52,0x33,0xbf,0x7d,0xa1,0x96,0xbb,
0x42,0xad,0x59,0x3f,0x63,0xa8,0x7b,0x3f,0x96,0xf7,0xff,0xff,
0x04,0x00,0x00,0x00,0x40,0x00,0x00,0x00,0x87,0xed,0x99,0x3e,
0x00,0x00,0x00,0x00,0xfc,0x3c,0xee,0xbb,0x7b,0x79,0x3c,0x3e,
0x68,0x0a,0x8c,0x3e,0x6c,0xe0,0xfd,0x3d,0x45,0x6b,0x1c,0x3f,
0x91,0x45,0x94,0x3e,0x5e,0x22,0x16,0xbd,0x7d,0x12,0xb4,0x3e,
0xe1,0xaa,0x1c,0x3f,0x00,0x00,0x00,0x00,0xf4,0xd9,0x04,0xbf,
0xa6,0x3d,0xe0,0x3c,0x99,0x28,0x81,0x3e,0xa3,0xac,0x97,0xbe,
0xe2,0xf7,0xff,0xff,0x04,0x00,0x00,0x00,0x04,0x00,0x00,0x00,
0xf9,0x10,0x2a,0x3e,0xf2,0xf7,0xff,0xff,0x04,0x00,0x00,0x00,
0x00,0x08,0x00,0x00,0xb9,0xba,0xb9,0x3e,0xd1,0x85,0x94,0xbe,
0x51,0x7b,0x8c,0x3e,0xff,0x64,0x26,0xbe,0x08,0x17,0x33,0x3d,
0x3b,0x59,0xdf,0x3e,0xf7,0xf4,0x9b,0x3e,0x97,0xc0,0x2a,0xbe,
0xa8,0x05,0x98,0xbe,0xea,0x22,0x5f,0xbe,0x80,0xac,0x8c,0x3d,
0x32,0xa9,0x6c,0xbe,0x0c,0xd4,0xa3,0xbd,0xcb,0x15,0x8e,0x3e,
0xfc,0x6e,0x9e,0xbd,0xfe,0x8b,0x93,0x3f,0x9f,0x44,0x80,0x3e,
0x8b,0x53,0x01,0x3d,0x0c,0x04,0x9d,0xbe,0xa3,0x99,0x3a,0xbe,
0x87,0xcd,0xb4,0x3e,0xc3,0xac,0x13,0xc0,0x97,0x90,0x85,0xbe,
0xbc,0xa0,0x11,0x3e,0x7a,0x34,0x53,0x3e,0xde,0xa8,0x66,0xbe,
0xa3,0xf6,0x33,0xbe,0x31,0x9e,0x0c,0xc0,0x9c,0xce,0xff,0x3c,
0x07,0xdf,0xce,0xbd,0x68,0x6b,0x89,0x3e,0x0c,0x6f,0x17,0xc0,
0x68,0x60,0x66,0x3d,0x4a,0xc9,0x4c,0x3e,0x3c,0x7b,0xad,0xbe,
0x36,0x2d,0x47,0x3e,0x65,0xc2,0xb4,0xbe,0xda,0x80,0x66,0x3e,
0x26,0x35,0x34,0xbe,0x5c,0x39,0xad,0xbe,0x28,0x0e,0x07,0x3d,
0x38,0xc9,0x67,0xbd,0xe4,0x3d,0xbb,0x3d,0x1d,0xdd,0x9e,0x3e,
0xd7,0x80,0x8d,0x3e,0x54,0x6f,0xb5,0xbd,0xb4,0xb7,0x80,0xbd,
0x80,0x80,0x9b,0xbc,0x00,0x05,0x5c,0x3c,0x70,0x98,0x23,0xbd,
0x0e,0x9d,0x1e,0xbe,0x44,0xd4,0xcf,0xbd,0x60,0x6d,0x40,0xbd,
0x15,0xba,0x63,0xbe,0xa6,0x60,0x75,0x3e,0x72,0x22,0x87,0xbe,
0x32,0x11,0x0e,0x3e,0xa8,0x29,0xa9,0xbd,0xc2,0xe5,0x7a,0xbe,
0x7a,0x3e,0x27,0x3e,0x69,0x5d,0xad,0x3e,0x9d,0x0d,0xa8,0xbe,
0x58,0x9e,0x61,0x3d,0xd6,0x96,0xa6,0xbe,0x5f,0x55,0x8c,0x3e,
0xe2,0x30,0x56,0x3e,0xef,0x0f,0xd3,0x3d,0x70,0x4b,0x8f,0xbe,
0x65,0xa1,0x9c,0xbe,0x20,0x56,0x6b,0x3e,0x6b,0xa5,0x86,0x3e,
0x2a,0x96,0x1d,0x3e,0x75,0x06,0x23,0x3d,0xb9,0x29,0xa4,0x3e,
0x56,0x19,0x5e,0x3e,0x28,0xef,0x2e,0x3e,0xae,0x30,0x39,0xbe,
0xe3,0x74,0xc8,0x3e,0x60,0x22,0x0f,0xbd,0xed,0x57,0x28,0xbf,
0xde,0xab,0x58,0x3e,0x07,0x6a,0x52,0x3d,0x20,0xc4,0xc5,0x3c,
0xdd,0x07,0xa7,0xbe,0xe1,0x3b,0xb2,0x3e,0x5b,0xef,0x9b,0x3f,
0x2f,0x76,0x96,0x3e,0xca,0x6e,0x8c,0x3e,0x08,0xa2,0xbe,0x3d,
0xab,0xfd,0x26,0xbe,0xae,0xca,0x59,0x3e,0x30,0x1a,0xba,0x3f,
0x11,0x8c,0xe5,0x3e,0x51,0xef,0xd4,0x3d,0x51,0x71,0x93,0xbe,
0xd1,0xe0,0xcc,0x3f,0x6b,0x8d,0x7a,0x3e,0xb2,0x7b,0x52,0x3e,
0xea,0x88,0x85,0xbf,0x20,0x29,0xe0,0x3d,0xf6,0xef,0x40,0x3e,
0x7c,0xc4,0x17,0x3f,0xa9,0x48,0xcf,0x3e,0xbf,0x83,0x93,0x3e,
0xfd,0x5f,0xb9,0xbe,0x66,0x9d,0x3a,0xbf,0x40,0xa9,0x85,0x3c,
0x00,0x33,0xea,0x3b,0xbb,0x68,0x43,0xbe,0x0b,0x5c,0x1c,0xbf,
0x36,0xee,0x6e,0x3e,0x87,0xfb,0x01,0x3f,0x29,0x9d,0x90,0x3e,
0xa7,0x04,0x97,0xbd,0x82,0xcd,0x7b,0xbe,0x09,0x40,0x80,0x3e,
0x0d,0xed,0x2f,0xbf,0x61,0x11,0xbf,0x3e,0x40,0xcc,0x39,0xbd,
0xfb,0xf7,0x35,0x3c,0xda,0xbd,0x4c,0x3e,0x8b,0xc7,0xb7,0xbd,
0xa6,0xbf,0x8b,0xbe,0xc7,0xa3,0x30,0x3f,0xa5,0x7c,0x83,0xbe,
0x74,0x7d,0x93,0x3e,0x6d,0x27,0xe8,0x3e,0xde,0x71,0xad,0x3e,
0x2e,0x2b,0x8e,0x3d,0x20,0xc5,0x37,0xbd,0x64,0xa9,0x61,0x3c,
0x20,0xbd,0xc3,0xbc,0xc0,0x26,0xe9,0x3d,0x2c,0x46,0x41,0xbe,
0xaa,0x99,0xbd,0x3d,0x88,0xf2,0x12,0xbd,0x52,0x2a,0x14,0xbe,
0x81,0xeb,0x04,0xbe,0x10,0x7e,0x11,0xbd,0xdf,0x20,0xab,0x3e,
0x91,0xad,0x98,0x3e,0xd8,0x93,0x0c,0x3e,0x49,0xca,0x83,0xbe,
0x0c,0x20,0xf8,0x3e,0x79,0x27,0xab,0xbe,0xcf,0x26,0x16,0xbe,
0x40,0xb1,0xf2,0x3c,0xc0,0xa9,0x73,0xbc,0xa8,0x04,0x18,0x3e,
0x9e,0x62,0x0a,0xc0,0xb0,0xd5,0x16,0xbe,0xf4,0x4f,0x63,0x3e,
0xb8,0x2d,0xb4,0xbd,0x27,0x31,0xaa,0x3e,0xb0,0x7a,0xfc,0x3c,
0x41,0x12,0x00,0xc0,0xc6,0x71,0x60,0x3e,0xf0,0x6d,0x9b,0xbe,
0xf2,0x9b,0xd0,0x3d,0xbe,0xdb,0x16,0xc0,0x40,0xe0,0x24,0x3e,
0x00,0xf0,0x4d,0xb9,0x91,0x94,0x58,0xbf,0xbd,0xc7,0x84,0x3e,
0x50,0x34,0xfb,0x3d,0xb3,0x9a,0xde,0x3c,0x43,0x1a,0xff,0x3e,
0x5b,0x53,0x9d,0x3e,0x36,0x0e,0xc1,0x3c,0xef,0x1d,0x59,0xbf,
0x94,0x83,0xb6,0xbd,0xcc,0x80,0x7d,0x3e,0xd9,0x74,0xa3,0x3e,
0xe6,0x00,0xd4,0xbe,0x30,0x57,0xa7,0xbc,0x5e,0x22,0xf0,0x3e,
0x62,0x00,0x2c,0x3e,0x5b,0xf4,0x1d,0x3e,0x3e,0x5e,0x14,0x3e,
0xb0,0x2b,0x72,0x3d,0xa0,0x57,0x1b,0xbf,0x88,0x87,0xcf,0x3d,
0xfa,0x4c,0x2b,0x3e,0x4c,0x77,0xb3,0x3e,0x30,0x0d,0xfd,0x3d,
0xd1,0xe2,0x3a,0xbe,0x9d,0x3d,0x9b,0x3e,0x2b,0xb9,0x1b,0x3f,
0x29,0xb3,0x08,0xbf,0x00,0x51,0xfb,0xbd,0xd2,0x92,0x0a,0x3f,
0x1c,0x75,0x18,0x3f,0x42,0xe1,0xdd,0x3d,0x54,0x1c,0x07,0xbe,
0x5c,0x2e,0xa1,0x3e,0x99,0x7a,0xa3,0x3e,0x80,0x21,0xf9,0x3b,
0x91,0xa9,0xa5,0x3d,0x69,0xf8,0x38,0xbf,0x5e,0xe5,0xdf,0xbd,
0xf5,0x63,0x8b,0xbf,0xe6,0xb8,0x59,0xbc,0xed,0x4b,0x8f,0xbe,
0xd1,0xc0,0x22,0xbd,0x78,0xbc,0x4e,0x3d,0x2f,0xda,0x37,0x3d,
0xd7,0x63,0x83,0x3e,0x01,0xcc,0x87,0x3f,0xe3,0x68,0x88,0x3e,
0xdc,0x23,0x6a,0xbe,0x9e,0x9f,0x69,0x3e,0x78,0x9d,0xbd,0xbd,
0x4c,0x5e,0x0d,0xbb,0x06,0x46,0x34,0x3f,0xff,0xd4,0x97,0xbe,
0x17,0x5c,0x07,0x3f,0x46,0xe1,0x4a,0x3e,0x61,0x8a,0x8e,0xbf,
0xba,0x45,0x5d,0xbe,0x72,0x18,0xd1,0x3e,0xfc,0x23,0x7a,0xbf,
0xc7,0x03,0x5a,0xbe,0x79,0xae,0x32,0x3e,0xd0,0x37,0x35,0x3f,
0x4e,0x2d,0x82,0x3e,0x36,0xfe,0x12,0xbe,0xb7,0xd6,0xa4,0x3e,
0xc9,0xfa,0x94,0x3e,0x09,0x5c,0xac,0xbe,0x7c,0x7c,0xd3,0x3d,
0x30,0xe3,0x9f,0xbe,0xb4,0x34,0xa1,0xbd,0xfe,0xe4,0xb4,0xbe,
0x1b,0xcd,0x0a,0xbe,0xf2,0x7f,0x13,0xbe,0x93,0x7a,0xa7,0x3e,
0xe1,0x93,0x3c,0xbe,0xb1,0xd0,0x06,0xbb,0x85,0x72,0x99,0x3e,
0x7b,0xdd,0xa0,0x3f,0x20,0xe7,0x39,0x3c,0x54,0xd2,0x3d,0xbe,
0x7d,0x8f,0x97,0x3e,0x5e,0x46,0x5e,0x3e,0x21,0x31,0x7e,0x3e,
0x22,0x4a,0xd4,0xbf,0x56,0x4b,0x0d,0x3e,0x1b,0x51,0x66,0x3e,
0x72,0x79,0x87,0xbe,0x44,0xc2,0x6a,0xbe,0x7a,0x41,0xd6,0xbd,
0x94,0x13,0xd3,0xbf,0xd4,0x69,0xfe,0x3d,0x33,0xe1,0x99,0x3e,
0xcd,0x55,0xaf,0x3c,0x7e,0xed,0x03,0xc0,0x98,0xb6,0x6e,0xbe,
0x30,0xe4,0xaa,0x3c,0xd1,0x9e,0x99,0x3e,0x96,0x87,0x43,0x3e,
0x85,0x67,0xab,0x3e,0x1e,0xb8,0x2b,0x3d,0x90,0xa0,0x6c,0xbe,
0x35,0x5a,0x0e,0xbe,0x9c,0x04,0xf6,0x3b,0x0d,0x4e,0x96,0x3e,
0x10,0xae,0xdd,0xbc,0x5e,0x14,0x9b,0xbe,0xc2,0xcd,0x73,0x3e,
0x5d,0x26,0x27,0x3e,0x0c,0x99,0x2c,0xbe,0x85,0x76,0xe4,0x3d,
0xe0,0xf7,0x83,0x3d,0x4b,0x2d,0x20,0xbd,0x04,0x77,0x0b,0xbe,
0x3b,0xa4,0xb2,0x3e,0xe5,0x76,0x73,0xbe,0x77,0xd3,0x22,0xbe,
0x1c,0x0c,0x6b,0xbe,0x40,0x20,0x19,0xbd,0xd1,0xf1,0x8b,0x3e,
0xdb,0x33,0x38,0xbe,0xc0,0xf3,0xb5,0x3c,0xf3,0x7f,0x94,0x3d,
0xe3,0x76,0x9d,0x3b,0xff,0x84,0x3a,0x3e,0xac,0xfe,0x27,0xbd,
0xa5,0x84,0xc1,0xbe,0x6c,0x7c,0xb6,0x3e,0xea,0x02,0x89,0xbe,
0x23,0x26,0x28,0x3e,0x3e,0xca,0xff,0xbd,0xb4,0x6c,0x55,0xbe,
0xa5,0x88,0xf0,0x3e,0xd0,0x89,0x4b,0xbf,0xf3,0x11,0x9d,0x3e,
0x15,0x98,0x6d,0xbe,0x6f,0xe1,0x7c,0xbd,0x05,0x7e,0x86,0x3e,
0x9d,0xf5,0xd2,0x3e,0x2f,0xcc,0x86,0x3e,0x0a,0xa6,0xae,0x3d,
0xd0,0x55,0x4c,0xbd,0x90,0x74,0x1f,0x3f,0x11,0x7d,0x42,0xbe,
0xc2,0xda,0xd8,0x3b,0xa3,0x35,0x8b,0x3e,0x9c,0xae,0xaa,0x3d,
0x87,0x63,0x01,0xbd,0xe3,0xff,0xd1,0x3e,0x42,0xe1,0x20,0xbe,
0xd0,0x48,0x03,0xbd,0xd8,0x91,0x1b,0xbe,0xb6,0x78,0x28,0xbf,
0xf3,0x1c,0xa4,0xbe,0xae,0x9a,0xe1,0x3e,0x83,0x91,0x1d,0xbf,
0x84,0xca,0x49,0xbe,0xf9,0x3e,0x32,0x3e,0xeb,0x81,0x86,0x3e,
0x8c,0x1c,0xc4,0x3e,0xb0,0x58,0xcb,0x3c,0xc4,0x9d,0x65,0xbe,
0xa2,0x74,0x12,0x3e,0x06,0xa9,0x74,0xbe,0x53,0xeb,0x73,0x3e,
0x25,0x30,0x66,0xbf,0xf3,0x6a,0x24,0xbe,0x53,0x02,0x65,0xbf,
0x93,0x05,0x39,0xbc,0xa6,0xa0,0x20,0x3e,0x35,0x92,0xdc,0x3e,
0x32,0xac,0x11,0x3e,0x24,0x5b,0xb4,0x3e,0xb7,0x00,0x66,0xbe,
0x8d,0xd8,0xe9,0x3e,0xdd,0x4e,0xa7,0x3e,0x08,0x91,0x93,0xbe,
0x35,0x5d,0x8f,0x3e,0xa0,0xae,0xc3,0xbc,0xfb,0x5d,0xbc,0x3d,
0xab,0x6f,0x0c,0x3f,0xc0,0xe6,0x53,0x3d,0x06,0x1f,0x05,0x3f,
0x16,0xa4,0x97,0xbe,0x57,0x42,0x6d,0xbf,0x40,0x22,0x77,0x3d,
0x53,0x48,0x14,0x3f,0x69,0x91,0x91,0xbf,0x4b,0x87,0x8f,0xbe,
0x24,0x14,0x9b,0x3e,0xc4,0x02,0x57,0x3f,0x4a,0x30,0x92,0xbe,
0x37,0x51,0xa5,0x3e,0x80,0x13,0x8f,0xbe,0x15,0x11,0x24,0xbe,
0xb9,0x0e,0xb4,0xbe,0x3a,0x05,0x09,0x3e,0xa5,0x10,0x8a,0xbe,
0x8e,0xe3,0x1c,0xbe,0x50,0x7d,0x35,0xbe,0x50,0x6c,0x97,0x3c,
0x80,0xc7,0x9c,0xbe,0x6e,0xd4,0x1a,0x3e,0x3d,0xf9,0x99,0x3e,
0x9a,0x7e,0x87,0xbe,0x8b,0x8a,0x88,0x3e,0x22,0x89,0x42,0xbe,
0x00,0xda,0xfa,0x3b,0x5c,0x56,0xd2,0xbd,0xcf,0xd3,0x98,0xbe,
0x5c,0x5f,0xb3,0xbe,0x02,0x41,0x94,0xbe,0xc3,0x93,0x0b,0xbe,
0x00,0xf4,0x53,0xba,0x5c,0x77,0x83,0xbd,0x10,0xd8,0xe1,0x3c,
0xd0,0xb2,0xac,0x3c,0x86,0x58,0x95,0xbe,0xa8,0x57,0x87,0xbd,
0x10,0xc2,0xef,0x3d,0x15,0x4a,0x15,0xbe,0xa0,0xea,0xd7,0xbd,
0xf4,0xd0,0x8b,0xbd,0xe3,0x73,0xb5,0xbe,0xdc,0xb1,0x0f,0xbe,
0x6c,0xa4,0x85,0xbd,0x38,0x59,0x23,0x3d,0x97,0x9a,0xab,0x3e,
0x1e,0x17,0x8d,0xbf,0x7b,0x08,0x82,0x3c,0x44,0xd7,0x90,0xbe,
0x2e,0xc6,0x9c,0x3e,0x11,0x19,0x33,0x3e,0xae,0xe3,0xdc,0xbd,
0x68,0xcd,0x9e,0xbe,0x00,0xef,0x0c,0xbc,0xc9,0xde,0x9f,0x3e,
0xa8,0x44,0x97,0x3d,0xf6,0x1a,0x58,0x3d,0x30,0x8d,0x75,0xbd,
0x4d,0x62,0x8f,0xbd,0xee,0x98,0x0b,0x3e,0xe3,0x67,0xaf,0xbe,
0x04,0x22,0xba,0xbd,0x8c,0x1c,0xad,0xbd,0xba,0xdf,0x84,0xbe,
0x54,0xfe,0x24,0xbf,0x38,0xda,0xaa,0xbd,0xbb,0x69,0x9c,0x3e,
0x30,0xe2,0x41,0xbe,0x94,0x99,0x01,0xbf,0x66,0x82,0xf6,0x3e,
0xad,0x8d,0x7a,0xbe,0xb9,0xba,0x91,0xbf,0x01,0xd5,0xa3,0xbe,
0x6c,0x65,0x68,0x3e,0xf4,0x3f,0xa3,0x3d,0xca,0x13,0x24,0xbe,
0xa3,0x77,0x17,0xbe,0x48,0xba,0x71,0x3d,0x1c,0xc3,0x0d,0x3e,
0xbd,0x4c,0xd7,0x3e,0x4c,0xe3,0x9b,0x3d,0xec,0x1b,0x01,0x3f,
0x8a,0x92,0xde,0x3e,0x00,0xd9,0x14,0x3d,0x27,0x08,0xbf,0x3e,
0x85,0xed,0x46,0xbe,0xe1,0x52,0xe5,0xbd,0x5f,0x89,0xb4,0xbe,
0x81,0xc1,0x60,0xbf,0x82,0x0c,0x2c,0xbe,0x71,0xad,0x87,0xbe,
0x39,0xe9,0x6e,0xbe,0x33,0x99,0x99,0x3e,0x45,0xd3,0xf4,0x3d,
0x9b,0x24,0xed,0x3f,0x28,0x5b,0xb7,0x3d,0xbb,0x65,0xcb,0x3e,
0x9f,0x6b,0x66,0xbe,0x07,0x26,0xfa,0x3e,0x84,0x27,0xa3,0x3d,
0x40,0xaf,0xca,0x3f,0xfb,0x65,0xb6,0xbb,0x1e,0xf2,0xc8,0x3d,
0x62,0xd2,0x82,0x3e,0x7a,0x89,0xab,0x3f,0x27,0xb5,0x1a,0xbd,
0xb0,0xe3,0x05,0x3d,0xac,0x73,0x85,0x3e,0x75,0x5a,0x7e,0xbe,
0x3c,0x22,0xb4,0x3d,0xfa,0x6d,0xf6,0x3e,0xe7,0x86,0x7d,0x3e,
0x0f,0x44,0xb1,0xbe,0xab,0xd3,0xbd,0x3e,0x75,0x5a,0x98,0xbe,
0x69,0x54,0x95,0x3e,0x36,0x5b,0x83,0xbd,0xe6,0x4b,0x24,0x3e,
0xca,0x3e,0x27,0xbe,0x35,0x85,0x89,0x3e,0x78,0x1c,0x65,0x3f,
0x40,0x8c,0xd1,0xbd,0x67,0xf5,0xba,0x3d,0x11,0x15,0x98,0xbe,
0xd2,0xef,0x0b,0x3e,0x42,0x60,0x83,0x3e,0x1a,0xba,0x1a,0xc0,
0x55,0x12,0x8c,0x3e,0x86,0x62,0xa6,0x3b,0x7f,0x6d,0xae,0x3e,
0x41,0x7b,0x08,0x3e,0xb7,0x13,0x6f,0xbe,0xd5,0x92,0x06,0xc0,
0x52,0x7f,0xa5,0x3d,0x19,0x12,0x30,0x3e,0x64,0x0a,0xde,0x3e,
0x0c,0xf1,0x0a,0xc0,0x6b,0xa0,0x28,0x3d,0xb6,0xfe,0x2a,0x3e,
0x02,0xd6,0x29,0x3e,0x00,0xe1,0x3f,0xbc,0x20,0x70,0x3a,0xbd,
0x25,0xea,0x09,0xbd,0x5c,0x35,0xe9,0x3e,0xc0,0x78,0x0e,0x3d,
0xb8,0x85,0xba,0x3e,0x22,0x3a,0x9d,0x3e,0x34,0xba,0xd0,0x3d,
0xcf,0x14,0xd6,0xbd,0x98,0xa1,0x0b,0xbe,0x4d,0xcd,0x7a,0x3e,
0x3e,0x26,0x25,0x3e,0x40,0xce,0xd6,0xbe,0x05,0xfb,0x1c,0xbe,
0xd5,0x47,0xac,0xbc,0xc7,0x62,0x8a,0xbe,0x40,0x0e,0xca,0xbc,
0xa5,0x5e,0x03,0xbe,0xa2,0x4b,0xea,0xbf,0x67,0x11,0xa4,0xbe,
0xbe,0x55,0x71,0x3d,0x95,0x86,0x1e,0xbe,0x67,0x71,0x91,0x3e,
0xd8,0x4d,0x3e,0xbe,0x36,0x88,0x14,0xc0,0xf2,0xe1,0xe1,0x3e,
0xc1,0x9c,0x88,0xbe,0x63,0x67,0x72,0x3d,0x9d,0xac,0x2c,0xc0,
0x00,0x00,0x06,0x00,0x08,0x00,0x04,0x00,0x06,0x00,0x00,0x00,
0x04,0x00,0x00,0x00,0x40,0x00,0x00,0x00,0xf0,0x75,0x6e,0x3f,
0x0a,0x07,0xa2,0xbe,0x12,0xd0,0x00,0xbf,0x9b,0x39,0x94,0xbf,
0xd8,0xc0,0x41,0x3f,0x3a,0xec,0xad,0xbf,0x4c,0xd7,0xb4,0x3f,
0x43,0x98,0x6d,0x3f,0xb5,0x04,0x89,0xbe,0x2e,0x9d,0x30,0x3f,
0x3e,0xfd,0xad,0x3f,0x03,0x40,0x0c,0xbf,0x53,0x68,0x33,0xc0,
0xc9,0x5a,0xe4,0xbe,0x18,0x2a,0x1d,0x3f,0xee,0x78,0xb2,0x3f,
0x40,0xfb,0xff,0xff,0x44,0xfb,0xff,0xff,0x0f,0x00,0x00,0x00,
0x4d,0x4c,0x49,0x52,0x20,0x43,0x6f,0x6e,0x76,0x65,0x72,0x74,
0x65,0x64,0x2e,0x00,0x01,0x00,0x00,0x00,0x14,0x00,0x00,0x00,
0x00,0x00,0x0e,0x00,0x18,0x00,0x14,0x00,0x10,0x00,0x0c,0x00,
0x08,0x00,0x04,0x00,0x0e,0x00,0x00,0x00,0x14,0x00,0x00,0x00,
0x1c,0x00,0x00,0x00,0xd8,0x00,0x00,0x00,0xdc,0x00,0x00,0x00,
0xe0,0x00,0x00,0x00,0x04,0x00,0x00,0x00,0x6d,0x61,0x69,0x6e,
0x00,0x00,0x00,0x00,0x03,0x00,0x00,0x00,0x80,0x00,0x00,0x00,
0x38,0x00,0x00,0x00,0x04,0x00,0x00,0x00,0x9a,0xff,0xff,0xff,
0x10,0x00,0x00,0x00,0x00,0x00,0x00,0x08,0x0c,0x00,0x00,0x00,
0x10,0x00,0x00,0x00,0xbc,0xfb,0xff,0xff,0x01,0x00,0x00,0x00,
0x09,0x00,0x00,0x00,0x03,0x00,0x00,0x00,0x08,0x00,0x00,0x00,
0x01,0x00,0x00,0x00,0x03,0x00,0x00,0x00,0xca,0xff,0xff,0xff,
0x10,0x00,0x00,0x00,0x00,0x00,0x00,0x08,0x10,0x00,0x00,0x00,
0x14,0x00,0x00,0x00,0xba,0xff,0xff,0xff,0x00,0x00,0x00,0x01,
0x01,0x00,0x00,0x00,0x08,0x00,0x00,0x00,0x03,0x00,0x00,0x00,
0x07,0x00,0x00,0x00,0x02,0x00,0x00,0x00,0x04,0x00,0x00,0x00,
0x00,0x00,0x0e,0x00,0x16,0x00,0x00,0x00,0x10,0x00,0x0c,0x00,
0x0b,0x00,0x04,0x00,0x0e,0x00,0x00,0x00,0x18,0x00,0x00,0x00,
0x00,0x00,0x00,0x08,0x18,0x00,0x00,0x00,0x1c,0x00,0x00,0x00,
0x00,0x00,0x06,0x00,0x08,0x00,0x07,0x00,0x06,0x00,0x00,0x00,
0x00,0x00,0x00,0x01,0x01,0x00,0x00,0x00,0x07,0x00,0x00,0x00,
0x03,0x00,0x00,0x00,0x00,0x00,0x00,0x00,0x06,0x00,0x00,0x00,
0x05,0x00,0x00,0x00,0x01,0x00,0x00,0x00,0x09,0x00,0x00,0x00,
0x01,0x00,0x00,0x00,0x00,0x00,0x00,0x00,0x0a,0x00,0x00,0x00,
0x6c,0x03,0x00,0x00,0x14,0x03,0x00,0x00,0xbc,0x02,0x00,0x00,
0x80,0x02,0x00,0x00,0x28,0x02,0x00,0x00,0xd4,0x01,0x00,0x00,
0x88,0x01,0x00,0x00,0xf8,0x00,0x00,0x00,0x60,0x00,0x00,0x00,
0x04,0x00,0x00,0x00,0xd2,0xfc,0xff,0xff,0x00,0x00,0x00,0x01,
0x14,0x00,0x00,0x00,0x1c,0x00,0x00,0x00,0x1c,0x00,0x00,0x00,
0x0a,0x00,0x00,0x00,0x34,0x00,0x00,0x00,0x02,0x00,0x00,0x00,
0xff,0xff,0xff,0xff,0x01,0x00,0x00,0x00,0xbc,0xfc,0xff,0xff,
0x1b,0x00,0x00,0x00,0x53,0x74,0x61,0x74,0x65,0x66,0x75,0x6c,
0x50,0x61,0x72,0x74,0x69,0x74,0x69,0x6f,0x6e,0x65,0x64,0x43,
0x61,0x6c,0x6c,0x5f,0x31,0x3a,0x30,0x00,0x02,0x00,0x00,0x00,
0x01,0x00,0x00,0x00,0x01,0x00,0x00,0x00,0x2a,0xfd,0xff,0xff,
0x00,0x00,0x00,0x01,0x14,0x00,0x00,0x00,0x1c,0x00,0x00,0x00,
0x1c,0x00,0x00,0x00,0x09,0x00,0x00,0x00,0x70,0x00,0x00,0x00,
0x02,0x00,0x00,0x00,0xff,0xff,0xff,0xff,0x10,0x00,0x00,0x00,
0x14,0xfd,0xff,0xff,0x54,0x00,0x00,0x00,0x73,0x65,0x71,0x75,
0x65,0x6e,0x74,0x69,0x61,0x6c,0x5f,0x31,0x2f,0x64,0x65,0x6e,
0x73,0x65,0x5f,0x31,0x5f,0x32,0x2f,0x4d,0x61,0x74,0x4d,0x75,
0x6c,0x3b,0x73,0x65,0x71,0x75,0x65,0x6e,0x74,0x69,0x61,0x6c,
0x5f,0x31,0x2f,0x64,0x65,0x6e,0x73,0x65,0x5f,0x31,0x5f,0x32,
0x2f,0x52,0x65,0x6c,0x75,0x3b,0x73,0x65,0x71,0x75,0x65,0x6e,
0x74,0x69,0x61,0x6c,0x5f,0x31,0x2f,0x64,0x65,0x6e,0x73,0x65,
0x5f,0x31,0x5f,0x32,0x2f,0x41,0x64,0x64,0x00,0x00,0x00,0x00,
0x02,0x00,0x00,0x00,0x01,0x00,0x00,0x00,0x10,0x00,0x00,0x00,
0xbe,0xfd,0xff,0xff,0x00,0x00,0x00,0x01,0x14,0x00,0x00,0x00,
0x1c,0x00,0x00,0x00,0x1c,0x00,0x00,0x00,0x08,0x00,0x00,0x00,
0x68,0x00,0x00,0x00,0x02,0x00,0x00,0x00,0xff,0xff,0xff,0xff,
0x20,0x00,0x00,0x00,0xa8,0xfd,0xff,0xff,0x4e,0x00,0x00,0x00,
0x73,0x65,0x71,0x75,0x65,0x6e,0x74,0x69,0x61,0x6c,0x5f,0x31,
0x2f,0x64,0x65,0x6e,0x73,0x65,0x5f,0x31,0x2f,0x4d,0x61,0x74,
0x4d,0x75,0x6c,0x3b,0x73,0x65,0x71,0x75,0x65,0x6e,0x74,0x69,
0x61,0x6c,0x5f,0x31,0x2f,0x64,0x65,0x6e,0x73,0x65,0x5f,0x31,
0x2f,0x52,0x65,0x6c,0x75,0x3b,0x73,0x65,0x71,0x75,0x65,0x6e,
0x74,0x69,0x61,0x6c,0x5f,0x31,0x2f,0x64,0x65,0x6e,0x73,0x65,
0x5f,0x31,0x2f,0x41,0x64,0x64,0x00,0x00,0x02,0x00,0x00,0x00,
0x01,0x00,0x00,0x00,0x20,0x00,0x00,0x00,0x9e,0xfe,0xff,0xff,
0x00,0x00,0x00,0x01,0x10,0x00,0x00,0x00,0x10,0x00,0x00,0x00,
0x07,0x00,0x00,0x00,0x28,0x00,0x00,0x00,0x24,0xfe,0xff,0xff,
0x1b,0x00,0x00,0x00,0x73,0x65,0x71,0x75,0x65,0x6e,0x74,0x69,
0x61,0x6c,0x5f,0x31,0x2f,0x64,0x65,0x6e,0x73,0x65,0x5f,0x31,
0x2f,0x4d,0x61,0x74,0x4d,0x75,0x6c,0x00,0x02,0x00,0x00,0x00,
0x20,0x00,0x00,0x00,0x01,0x00,0x00,0x00,0xe6,0xfe,0xff,0xff,
0x00,0x00,0x00,0x01,0x10,0x00,0x00,0x00,0x10,0x00,0x00,0x00,
0x06,0x00,0x00,0x00,0x34,0x00,0x00,0x00,0x6c,0xfe,0xff,0xff,
0x27,0x00,0x00,0x00,0x73,0x65,0x71,0x75,0x65,0x6e,0x74,0x69,
0x61,0x6c,0x5f,0x31,0x2f,0x64,0x65,0x6e,0x73,0x65,0x5f,0x31,
0x2f,0x41,0x64,0x64,0x2f,0x52,0x65,0x61,0x64,0x56,0x61,0x72,
0x69,0x61,0x62,0x6c,0x65,0x4f,0x70,0x00,0x01,0x00,0x00,0x00,
0x20,0x00,0x00,0x00,0x36,0xff,0xff,0xff,0x00,0x00,0x00,0x01,
0x10,0x00,0x00,0x00,0x10,0x00,0x00,0x00,0x05,0x00,0x00,0x00,
0x38,0x00,0x00,0x00,0xbc,0xfe,0xff,0xff,0x29,0x00,0x00,0x00,
0x73,0x65,0x71,0x75,0x65,0x6e,0x74,0x69,0x61,0x6c,0x5f,0x31,
0x2f,0x64,0x65,0x6e,0x73,0x65,0x5f,0x31,0x5f,0x32,0x2f,0x41,
0x64,0x64,0x2f,0x52,0x65,0x61,0x64,0x56,0x61,0x72,0x69,0x61,
0x62,0x6c,0x65,0x4f,0x70,0x00,0x00,0x00,0x01,0x00,0x00,0x00,
0x10,0x00,0x00,0x00,0x8a,0xff,0xff,0xff,0x00,0x00,0x00,0x01,
0x10,0x00,0x00,0x00,0x10,0x00,0x00,0x00,0x04,0x00,0x00,0x00,
0x1c,0x00,0x00,0x00,0x10,0xff,0xff,0xff,0x0f,0x00,0x00,0x00,
0x61,0x72,0x69,0x74,0x68,0x2e,0x63,0x6f,0x6e,0x73,0x74,0x61,
0x6e,0x74,0x32,0x00,0x01,0x00,0x00,0x00,0x01,0x00,0x00,0x00,
0xc2,0xff,0xff,0xff,0x00,0x00,0x00,0x01,0x10,0x00,0x00,0x00,
0x10,0x00,0x00,0x00,0x03,0x00,0x00,0x00,0x1c,0x00,0x00,0x00,
0x48,0xff,0xff,0xff,0x0f,0x00,0x00,0x00,0x61,0x72,0x69,0x74,
0x68,0x2e,0x63,0x6f,0x6e,0x73,0x74,0x61,0x6e,0x74,0x31,0x00,
0x02,0x00,0x00,0x00,0x10,0x00,0x00,0x00,0x20,0x00,0x00,0x00,
0x00,0x00,0x16,0x00,0x18,0x00,0x14,0x00,0x00,0x00,0x10,0x00,
0x0c,0x00,0x08,0x00,0x00,0x00,0x00,0x00,0x00,0x00,0x07,0x00,
0x16,0x00,0x00,0x00,0x00,0x00,0x00,0x01,0x10,0x00,0x00,0x00,
0x10,0x00,0x00,0x00,0x02,0x00,0x00,0x00,0x1c,0x00,0x00,0x00,
0x9c,0xff,0xff,0xff,0x0e,0x00,0x00,0x00,0x61,0x72,0x69,0x74,
0x68,0x2e,0x63,0x6f,0x6e,0x73,0x74,0x61,0x6e,0x74,0x00,0x00,
0x02,0x00,0x00,0x00,0x01,0x00,0x00,0x00,0x10,0x00,0x00,0x00,
0x00,0x00,0x16,0x00,0x1c,0x00,0x18,0x00,0x00,0x00,0x14,0x00,
0x10,0x00,0x0c,0x00,0x00,0x00,0x00,0x00,0x08,0x00,0x07,0x00,
0x16,0x00,0x00,0x00,0x00,0x00,0x00,0x01,0x14,0x00,0x00,0x00,
0x20,0x00,0x00,0x00,0x20,0x00,0x00,0x00,0x01,0x00,0x00,0x00,
0x3c,0x00,0x00,0x00,0x02,0x00,0x00,0x00,0xff,0xff,0xff,0xff,
0x01,0x00,0x00,0x00,0x04,0x00,0x04,0x00,0x04,0x00,0x00,0x00,
0x1e,0x00,0x00,0x00,0x73,0x65,0x72,0x76,0x69,0x6e,0x67,0x5f,
0x64,0x65,0x66,0x61,0x75,0x6c,0x74,0x5f,0x6b,0x65,0x72,0x61,
0x73,0x5f,0x74,0x65,0x6e,0x73,0x6f,0x72,0x3a,0x30,0x00,0x00,
0x02,0x00,0x00,0x00,0x01,0x00,0x00,0x00,0x01,0x00,0x00,0x00,
0x01,0x00,0x00,0x00,0x10,0x00,0x00,0x00,0x0c,0x00,0x0c,0x00,
0x0b,0x00,0x00,0x00,0x00,0x00,0x04,0x00,0x0c,0x00,0x00,0x00,
0x09,0x00,0x00,0x00,0x00,0x00,0x00,0x09
};

#endif //SINE_2L_MODEL_TFLITE_H