#ifndef SINE_2L_MODEL_TFLITE_H
#define SINE_2L_MODEL_TFLITE_H

/*
 Author: Mouli Sankaran 
 CAUTION: This is an auto generated file.
 DO NOT EDIT OR MAKE ANY CHANGES TO IT.
 This model data was generated on Wed Sep 25 12:21:52 2024

 Tools used:
 Python:3.11.5 | packaged by Anaconda, Inc. | (main, Sep 11 2023, 13:26:23) [MSC v.1916 64 bit (AMD64)]
 Numpy:1.24.3
 TensorFlow:2.17.0
 Keras: 3.5.0

 Model details are:
 NUM_OF_EPOCHS = 900
 BATCH_SIZE    = 16
*/

const int DENSE1_SIZE = 32;
const int DENSE2_SIZE = 16;

unsigned int sine_2L_model_tflite_len = 4304;

// Since the size is 4304 for this model the Tensor arena size needs to be
#define TENSOR_ARENA_SIZE 2*1024

unsigned char sine_2L_model_tflite[] = {
0x1c,0x00,0x00,0x00,0x54,0x46,0x4c,0x33,0x14,0x00,0x20,0x00,
0x1c,0x00,0x18,0x00,0x14,0x00,0x10,0x00,0x0c,0x00,0x00,0x00,
0x08,0x00,0x04,0x00,0x14,0x00,0x00,0x00,0x1c,0x00,0x00,0x00,
0x98,0x00,0x00,0x00,0xf0,0x00,0x00,0x00,0x94,0x0b,0x00,0x00,
0xa4,0x0b,0x00,0x00,0x7c,0x10,0x00,0x00,0x03,0x00,0x00,0x00,
0x01,0x00,0x00,0x00,0x10,0x00,0x00,0x00,0x00,0x00,0x0a,0x00,
0x10,0x00,0x0c,0x00,0x08,0x00,0x04,0x00,0x0a,0x00,0x00,0x00,
0x0c,0x00,0x00,0x00,0x1c,0x00,0x00,0x00,0x3c,0x00,0x00,0x00,
0x0f,0x00,0x00,0x00,0x73,0x65,0x72,0x76,0x69,0x6e,0x67,0x5f,
0x64,0x65,0x66,0x61,0x75,0x6c,0x74,0x00,0x01,0x00,0x00,0x00,
0x04,0x00,0x00,0x00,0x90,0xff,0xff,0xff,0x09,0x00,0x00,0x00,
0x04,0x00,0x00,0x00,0x08,0x00,0x00,0x00,0x6f,0x75,0x74,0x70,
0x75,0x74,0x5f,0x30,0x00,0x00,0x00,0x00,0x01,0x00,0x00,0x00,
0x04,0x00,0x00,0x00,0x3a,0xf5,0xff,0xff,0x04,0x00,0x00,0x00,
0x0c,0x00,0x00,0x00,0x6b,0x65,0x72,0x61,0x73,0x5f,0x74,0x65,
0x6e,0x73,0x6f,0x72,0x00,0x00,0x00,0x00,0x02,0x00,0x00,0x00,
0x34,0x00,0x00,0x00,0x04,0x00,0x00,0x00,0xdc,0xff,0xff,0xff,
0x0c,0x00,0x00,0x00,0x04,0x00,0x00,0x00,0x13,0x00,0x00,0x00,
0x43,0x4f,0x4e,0x56,0x45,0x52,0x53,0x49,0x4f,0x4e,0x5f,0x4d,
0x45,0x54,0x41,0x44,0x41,0x54,0x41,0x00,0x08,0x00,0x0c,0x00,
0x08,0x00,0x04,0x00,0x08,0x00,0x00,0x00,0x0b,0x00,0x00,0x00,
0x04,0x00,0x00,0x00,0x13,0x00,0x00,0x00,0x6d,0x69,0x6e,0x5f,
0x72,0x75,0x6e,0x74,0x69,0x6d,0x65,0x5f,0x76,0x65,0x72,0x73,
0x69,0x6f,0x6e,0x00,0x0d,0x00,0x00,0x00,0xa0,0x0a,0x00,0x00,
0x98,0x0a,0x00,0x00,0x48,0x0a,0x00,0x00,0x30,0x02,0x00,0x00,
0x1c,0x02,0x00,0x00,0xcc,0x01,0x00,0x00,0x3c,0x01,0x00,0x00,
0xac,0x00,0x00,0x00,0xa4,0x00,0x00,0x00,0x9c,0x00,0x00,0x00,
0x94,0x00,0x00,0x00,0x74,0x00,0x00,0x00,0x04,0x00,0x00,0x00,
0xea,0xf5,0xff,0xff,0x04,0x00,0x00,0x00,0x60,0x00,0x00,0x00,
0x10,0x00,0x00,0x00,0x00,0x00,0x00,0x00,0x08,0x00,0x0e,0x00,
0x08,0x00,0x04,0x00,0x08,0x00,0x00,0x00,0x10,0x00,0x00,0x00,
0x24,0x00,0x00,0x00,0x00,0x00,0x06,0x00,0x08,0x00,0x04,0x00,
0x06,0x00,0x00,0x00,0x04,0x00,0x00,0x00,0x00,0x00,0x00,0x00,
0x0c,0x00,0x18,0x00,0x14,0x00,0x10,0x00,0x0c,0x00,0x04,0x00,
0x0c,0x00,0x00,0x00,0x81,0x73,0x35,0xf5,0x27,0x00,0xc7,0x45,
0x02,0x00,0x00,0x00,0x02,0x00,0x00,0x00,0x04,0x00,0x00,0x00,
0x06,0x00,0x00,0x00,0x32,0x2e,0x31,0x37,0x2e,0x30,0x00,0x00,
0x56,0xf6,0xff,0xff,0x04,0x00,0x00,0x00,0x10,0x00,0x00,0x00,
0x31,0x2e,0x35,0x2e,0x30,0x00,0x00,0x00,0x00,0x00,0x00,0x00,
0x00,0x00,0x00,0x00,0x60,0xf1,0xff,0xff,0x64,0xf1,0xff,0xff,
0x68,0xf1,0xff,0xff,0x7e,0xf6,0xff,0xff,0x04,0x00,0x00,0x00,
0x80,0x00,0x00,0x00,0x8e,0x7e,0x5a,0x3d,0x94,0xf1,0xe2,0x3d,
0xa0,0x76,0xfe,0xbd,0xf2,0x34,0x48,0xbe,0xec,0xbf,0x25,0x3e,
0x84,0xb9,0x07,0x3e,0xa5,0x7b,0x99,0x3e,0x20,0x6b,0x24,0x3e,
0x80,0x86,0x2c,0xbe,0x9f,0xda,0xab,0xbe,0x93,0xf7,0x34,0x3e,
0x29,0xd3,0xc2,0xbc,0xb9,0x46,0xf0,0x3e,0x0c,0x0b,0xc3,0xbe,
0xb3,0x47,0xab,0xbe,0x7c,0x99,0xa3,0xbe,0x6d,0xed,0x0d,0x3f,
0x84,0x66,0x85,0x3d,0xd2,0x0b,0xa0,0xbe,0x06,0xc2,0x60,0x3e,
0x4f,0xca,0x5b,0xbe,0xd5,0xd6,0xa3,0xbe,0x8e,0xcc,0x8c,0xbe,
0x12,0xa5,0x89,0xbe,0x45,0x6f,0x0b,0x3e,0xc9,0x2a,0x60,0xbe,
0xed,0x34,0xcc,0x3e,0x06,0x4f,0x11,0x3e,0x0c,0x07,0xdb,0xbd,
0xbb,0xf6,0x9e,0x3e,0x1e,0x7b,0x4c,0xbe,0xa9,0xcb,0x18,0x3e,
0x0a,0xf7,0xff,0xff,0x04,0x00,0x00,0x00,0x80,0x00,0x00,0x00,
0x3d,0x65,0x69,0xbd,0x4f,0xeb,0xbc,0xbb,0x00,0x00,0x00,0x00,
0x00,0x00,0x00,0x00,0xb1,0x9c,0x23,0x3f,0x68,0xc9,0x18,0xbf,
0x72,0xb9,0xea,0xbe,0x49,0xf9,0x04,0x3f,0x00,0x00,0x00,0x00,
0x00,0x00,0x00,0x00,0xfe,0x15,0x1c,0xbf,0x2b,0x04,0xd8,0x3e,
0x5f,0xd2,0xfb,0xbe,0x00,0x00,0x00,0x00,0x00,0x00,0x00,0x00,
0x00,0x00,0x00,0x00,0xac,0x7a,0x83,0x3e,0xdb,0x2c,0x96,0xbd,
0x00,0x00,0x00,0x00,0xe8,0x56,0x0c,0xbf,0x00,0x00,0x00,0x00,
0x00,0x00,0x00,0x00,0x00,0x00,0x00,0x00,0x00,0x00,0x00,0x00,
0x9c,0xa7,0xef,0xbe,0x00,0x00,0x00,0x00,0x8b,0x63,0x50,0x3f,
0x6d,0x95,0xbc,0xbe,0x00,0x00,0x00,0x00,0xf1,0x30,0xba,0xbc,
0x00,0x00,0x00,0x00,0xfa,0x46,0x14,0xbf,0x96,0xf7,0xff,0xff,
0x04,0x00,0x00,0x00,0x40,0x00,0x00,0x00,0x7a,0xe5,0xe0,0xbb,
0x63,0xc0,0x11,0x3e,0x0a,0xde,0x69,0x3c,0xff,0x9a,0xe2,0x3e,
0xf2,0x3b,0x14,0xbf,0x00,0x00,0x00,0x00,0x78,0xda,0x18,0xbc,
0xff,0xc8,0x60,0xbe,0x12,0xa7,0xd8,0x3d,0x93,0x15,0x07,0xbf,
0xe3,0x4c,0xcd,0x3e,0xee,0xdc,0x16,0xbe,0x08,0x4f,0xfb,0x3e,
0x09,0x5f,0xa7,0x3e,0xb3,0xd5,0x81,0x3e,0x91,0xe4,0xc7,0x3e,
0xe2,0xf7,0xff,0xff,0x04,0x00,0x00,0x00,0x04,0x00,0x00,0x00,
0x2a,0x13,0x10,0xbf,0xf2,0xf7,0xff,0xff,0x04,0x00,0x00,0x00,
0x00,0x08,0x00,0x00,0xc5,0x5f,0xa5,0xbe,0xb0,0xe6,0x21,0xbe,
0xe0,0x12,0xcd,0x3d,0xf1,0x1c,0x32,0xbe,0xd4,0xf7,0x6d,0x3e,
0xf9,0x91,0x8e,0xbe,0x2f,0xf5,0xb1,0xbe,0xdb,0x85,0x61,0xbd,
0x20,0x35,0x79,0x3d,0xcd,0x2b,0xb0,0x3e,0xa3,0x08,0x3c,0x3e,
0xa0,0x6b,0x8f,0xbe,0xd1,0x19,0x63,0x3e,0x08,0x10,0x06,0x3d,
0xdd,0x5f,0x99,0x3e,0x01,0x8f,0x9b,0xbe,0x2e,0x0b,0x7b,0x3d,
0x11,0x38,0xa3,0xbe,0x29,0xe0,0x8e,0x3e,0x26,0x0e,0x52,0x3e,
0x37,0x9a,0x9e,0x3e,0xc0,0x3d,0xa0,0xbc,0x85,0xa8,0x77,0xbe,
0x00,0x31,0xc8,0xbb,0x74,0xdc,0x81,0xbe,0xdd,0x8b,0x9c,0x3e,
0xa8,0x76,0xb4,0xbd,0xbd,0xa6,0x1a,0x3e,0x40,0x49,0xda,0xbc,
0xe5,0xa3,0x5d,0xbd,0xb8,0xf5,0xd7,0x3d,0xe3,0xbb,0x8d,0xbc,
0x45,0xf4,0xb5,0x3c,0x54,0xcf,0x79,0xbe,0xd5,0x75,0xad,0x3e,
0x24,0xc6,0x8c,0xbe,0x91,0x82,0xa0,0x3e,0x21,0xd2,0x86,0x3e,
0xb7,0xb7,0x28,0xbe,0x0f,0x0c,0xa8,0x3e,0xc9,0xe0,0x8d,0x3e,
0xf0,0x11,0x1d,0xbe,0x09,0x89,0x23,0xbe,0x41,0x3f,0xff,0x3d,
0xde,0xb1,0x81,0xbe,0x97,0xdc,0x90,0xbe,0x54,0x9d,0x0c,0x3e,
0xa2,0x79,0xf2,0xbd,0xef,0x86,0x3c,0xbb,0x8b,0x7c,0x27,0xbe,
0x69,0xb1,0x0c,0xbe,0xdd,0x76,0x67,0xbe,0xea,0xf2,0x91,0xbe,
0x58,0x51,0x62,0xbe,0xb9,0xd9,0x4e,0xbe,0x2d,0x09,0x73,0xbe,
0x94,0x7a,0xb1,0xbd,0xbb,0x4b,0xae,0xbe,0x9b,0xdc,0xd2,0x3c,
0xb2,0x54,0x1f,0xbf,0x4f,0x51,0x80,0xbe,0xb8,0x8d,0xfa,0xbc,
0xdb,0xa8,0xa2,0xbe,0xa2,0xf0,0x6a,0xbf,0x15,0xd3,0x28,0x3e,
0xd9,0x75,0x47,0xbe,0xe0,0xc7,0xb7,0xbc,0x17,0x49,0x9f,0xbe,
0x20,0x2f,0x91,0x3e,0x58,0xa7,0xbd,0xbe,0xf8,0xe2,0x9f,0xbe,
0xab,0xaa,0x5d,0x3e,0xfc,0x12,0x9a,0x3d,0xe8,0x9a,0xff,0x3d,
0xa0,0xbf,0xcf,0xbd,0x07,0x94,0x05,0x3c,0x06,0x5d,0x24,0x3e,
0x19,0x1a,0x85,0x3e,0xdd,0x88,0x83,0x3e,0x26,0x39,0x7a,0x3e,
0x32,0xd5,0x7a,0xbe,0x40,0x3a,0xb0,0xbe,0xed,0xe1,0x9d,0x3e,
0xd1,0xf4,0x13,0xbe,0x02,0xf9,0x35,0x3e,0x08,0x8e,0x1d,0xbe,
0x99,0x38,0x51,0xbe,0xc1,0x31,0xa3,0x3e,0xc4,0x16,0xe7,0xbe,
0x46,0xde,0x98,0xbe,0x2a,0xe7,0xaa,0xbe,0xd4,0xdc,0x92,0x3d,
0xd1,0x5f,0xb4,0xbe,0xb2,0x84,0x31,0x3e,0xa0,0x3c,0x88,0x3c,
0x90,0x44,0xde,0xbd,0xf6,0xeb,0xe6,0x3d,0xe5,0xf7,0x85,0x3e,
0xea,0xfc,0x5d,0x3e,0x43,0x42,0xa2,0x3e,0xb5,0x3e,0x0b,0x3e,
0x45,0xc3,0x4d,0xbe,0x0a,0x15,0xe7,0xbe,0x2b,0x9b,0x81,0x3e,
0xb2,0x44,0x8e,0xbe,0x1e,0xa1,0x30,0x3e,0xbf,0x4b,0xb4,0xbd,
0x12,0x32,0x3c,0x3d,0x36,0x2d,0x6b,0xbf,0x70,0xea,0xc0,0x3c,
0xca,0xf3,0x31,0x3e,0x9b,0x6e,0xa0,0xbe,0x70,0xac,0xde,0x3d,
0x88,0x06,0xa9,0xbe,0xf0,0x84,0x81,0xbd,0x03,0x04,0x21,0xbf,
0xb7,0xb5,0xa6,0xbe,0x90,0x3d,0x5a,0xbd,0x02,0x84,0x2c,0x3e,
0x94,0xa0,0xc6,0x3d,0x0b,0x38,0x23,0xbe,0x40,0xf6,0x25,0x3d,
0x6c,0x21,0x9d,0x3e,0x81,0x85,0x58,0xbf,0x87,0x90,0x4c,0xbe,
0xb4,0xa3,0x02,0xbd,0xc8,0xce,0xcc,0x3d,0x03,0xc9,0x18,0x3e,
0x3f,0xe3,0x99,0xbd,0x4e,0x9e,0xae,0x3d,0x01,0xfc,0xa0,0x3e,
0xa0,0xe6,0x7b,0xbd,0xdb,0xd6,0xba,0x3d,0xdd,0xd7,0x5d,0x3e,
0xd7,0xf4,0xd7,0x3d,0x47,0xc8,0xe9,0x3d,0xf5,0xe6,0x92,0x3e,
0x22,0x27,0x74,0x3e,0x35,0x46,0xeb,0x3e,0x8c,0xd4,0x7c,0xbe,
0xf7,0xb5,0x85,0x3e,0x51,0x1a,0x70,0xbe,0x00,0xe0,0x71,0x3a,
0x90,0x12,0x41,0xbe,0xc2,0x71,0x94,0xbe,0xbc,0xe7,0x91,0x3e,
0x80,0x1a,0x0e,0x3e,0xc0,0xf1,0x46,0x3e,0x6c,0x08,0x17,0xbe,
0x1c,0xcb,0xc4,0x3d,0xcd,0x7a,0x55,0xbe,0x54,0xba,0xb5,0x3d,
0xad,0x0f,0x9c,0x3e,0x00,0xf6,0x1c,0x3b,0x4f,0x51,0x04,0xbe,
0x53,0xe9,0xa3,0x3e,0x91,0x62,0x08,0xbe,0xdf,0x26,0xb0,0x3d,
0x63,0x45,0x95,0xbe,0xb9,0x47,0xfa,0x3e,0x42,0x25,0x1b,0x3e,
0x3e,0xd6,0x22,0x3e,0xad,0xf3,0x89,0x3e,0x56,0x57,0x6f,0x3e,
0xa1,0x04,0x1a,0xbe,0x8c,0x1e,0x09,0xbe,0x2f,0x7d,0x9b,0xbe,
0x51,0x56,0x73,0xbe,0x60,0xcb,0xbf,0xbd,0xf1,0xef,0x22,0xbe,
0x1c,0x2f,0xf4,0xbd,0x03,0x48,0x5b,0xbe,0xa6,0xcf,0x74,0xbe,
0x90,0xc4,0x76,0x3d,0xd4,0x13,0x51,0xbe,0xc4,0x2d,0x56,0xbe,
0x0d,0x27,0xa9,0x3e,0xa4,0x49,0x93,0xbe,0x3c,0x80,0xa2,0xbd,
0x2e,0x01,0x54,0x3e,0x39,0xe2,0x19,0xbe,0x98,0x62,0x98,0xbe,
0xe3,0x17,0x70,0xbe,0xb2,0x42,0x01,0x3e,0x11,0xdf,0x29,0xbe,
0x69,0x96,0x94,0xbe,0xa0,0x5f,0xee,0xbd,0xa9,0x0e,0x05,0xbe,
0xd2,0x24,0x6a,0x3e,0xd8,0x66,0x67,0x3d,0xf4,0x82,0x88,0xbe,
0xd2,0x01,0x2f,0xbe,0x4f,0xe8,0xa0,0x3e,0x7b,0x10,0x6f,0xbd,
0xb8,0x5f,0x10,0xbe,0xb8,0x45,0x4c,0x3d,0x85,0x08,0xb3,0xbe,
0xd6,0xa5,0xd3,0xbd,0x33,0x9e,0x0f,0xbd,0x4a,0x35,0x7c,0x3e,
0x15,0x2e,0x85,0x3e,0x88,0x96,0x25,0xbd,0x70,0xc7,0x78,0xbe,
0x42,0x82,0x05,0xbe,0x8a,0x08,0x82,0xbe,0xc9,0xda,0x39,0xbe,
0xa0,0xa2,0xa3,0xbc,0xcb,0xbe,0x05,0xbe,0x55,0x51,0x8b,0x3e,
0xce,0x2c,0x6c,0xbe,0x49,0x59,0xa4,0x3e,0x26,0xe9,0x94,0x3e,
0xc8,0x62,0x40,0xbe,0x85,0xbf,0x34,0xbe,0x0e,0xa2,0x3a,0xbe,
0x3c,0xe9,0xb9,0xbd,0x47,0xa9,0xa8,0xbd,0x8f,0xe7,0x8d,0x3e,
0xb2,0xa1,0x04,0xbe,0x70,0x63,0xb2,0xbd,0x0e,0xd2,0x5f,0xbe,
0xf3,0x5a,0x49,0x3d,0x24,0xf4,0x84,0xbe,0xdc,0x81,0x60,0xbd,
0x4d,0xc5,0xdd,0xbe,0xc8,0x3f,0x24,0x3e,0x0e,0x24,0x6e,0x3e,
0x98,0x86,0x87,0xbd,0xc4,0xce,0xbf,0xbe,0x0b,0xee,0x72,0xbe,
0x20,0x31,0x03,0xbe,0x8f,0x0d,0xb5,0xbe,0xc0,0x42,0xa9,0xbd,
0x28,0x0b,0x58,0x3d,0xed,0xdf,0x64,0xbd,0xa0,0x48,0x83,0xbe,
0xa4,0xe7,0x73,0x3e,0x4b,0x0c,0x90,0xbe,0x34,0x09,0x50,0xbe,
0xa8,0xf0,0xd3,0xbd,0x8f,0x41,0xc2,0x3e,0x3a,0x0e,0x46,0xbe,
0xfa,0x2f,0x33,0x3e,0xe0,0xa4,0x33,0x3d,0x6e,0xdf,0x63,0x3e,
0x90,0xe4,0xcf,0x3c,0x6c,0x1d,0xde,0x3d,0x3e,0xe3,0x98,0xbe,
0x5e,0xbc,0x65,0xbe,0x00,0x01,0xed,0xba,0x50,0x67,0x02,0xbe,
0x77,0x83,0x66,0x3d,0x5d,0x5a,0x9f,0x3e,0xc5,0xce,0x1c,0x3e,
0x53,0x54,0x9c,0x3e,0xc6,0xea,0x18,0xbe,0xf0,0xa8,0x6a,0xbd,
0x4a,0x1e,0xb9,0xbd,0xdc,0x73,0x9d,0xbe,0x11,0x76,0xb4,0x3e,
0xc9,0xa9,0x08,0xbe,0x42,0x32,0x7d,0xbf,0xab,0x48,0x02,0xbf,
0x8b,0x17,0x2c,0x3e,0xe0,0xb5,0x47,0xbe,0x30,0xa4,0x83,0x3c,
0x7c,0x5d,0x20,0xbf,0xfe,0xce,0x60,0x3e,0x25,0xe9,0xe8,0xbe,
0xfe,0x28,0x56,0xbe,0x0c,0xc4,0x81,0xbd,0xf0,0xfc,0xbd,0xbc,
0x3d,0x47,0xa1,0x3e,0x02,0x47,0x22,0x3e,0x22,0xb1,0x29,0x3e,
0x37,0x76,0xef,0x3d,0x28,0x4e,0x5f,0xbe,0x50,0xec,0x54,0xbd,
0x9d,0xb0,0xa8,0x3e,0x14,0x3d,0x0f,0xbe,0x98,0x10,0x9c,0x3c,
0xd0,0xa9,0xc6,0xbd,0xad,0x0c,0xb5,0x3d,0x46,0x26,0x0e,0xbf,
0x98,0xa4,0x0a,0xbd,0xd9,0x6f,0x3f,0x3e,0x7c,0xfe,0x82,0xbe,
0xbf,0xf2,0xe1,0xbe,0x46,0xe3,0x95,0x3c,0x09,0xd8,0x3c,0xbe,
0x52,0xc3,0x61,0x3e,0xa0,0x47,0xf5,0x3c,0xbd,0xed,0x0a,0xbe,
0xdd,0xa2,0xdf,0x3e,0xe9,0xb7,0x78,0x3e,0x64,0xd2,0xe1,0xbd,
0xb7,0x9c,0xa6,0xbe,0x50,0x37,0xd5,0x3c,0x9e,0xb4,0x36,0x3f,
0xb5,0x2f,0x25,0xbe,0x28,0x7c,0x43,0x3e,0x72,0x75,0xe8,0xbd,
0x58,0x5d,0x3e,0xbd,0xe8,0x08,0x0f,0xbd,0x52,0x54,0x45,0xbd,
0x61,0x16,0xdd,0xbd,0x74,0x59,0x8b,0xbd,0xfe,0xa1,0xff,0x3e,
0x88,0x33,0x81,0xbd,0x6d,0x02,0x9d,0x3e,0x8f,0xa0,0x82,0xbe,
0x21,0x3f,0x9e,0xbe,0x46,0xf7,0x1e,0x3e,0x90,0x3f,0x38,0x3d,
0x0f,0x3f,0x1a,0xbe,0x33,0xc8,0x0c,0x3f,0x84,0x90,0xa5,0x3d,
0xf7,0xe8,0x06,0x3e,0x72,0x57,0x77,0x3e,0xc9,0xbe,0xbe,0x3e,
0x80,0xb9,0x8a,0xbe,0x5d,0x22,0x41,0xbe,0xc8,0x82,0x29,0xbd,
0x23,0x7c,0x3e,0xbe,0xb2,0x69,0x28,0x3e,0x9a,0x1f,0x48,0xbd,
0xee,0x72,0x84,0xbd,0x2b,0xfa,0x47,0x3e,0x64,0x95,0x04,0x3e,
0xc2,0x09,0x80,0xbe,0xfb,0xe4,0xeb,0xbc,0xb0,0xc7,0xc2,0x3e,
0xb1,0x63,0xc8,0x3d,0xfd,0xea,0x1e,0xbe,0x0e,0x41,0x67,0xbe,
0xcc,0x0d,0xd8,0x3d,0x13,0xa6,0x18,0xbe,0x80,0xf6,0x92,0xbe,
0xc0,0x2e,0x0b,0x3c,0x56,0xf7,0xe1,0x3b,0x40,0xbf,0x70,0xbe,
0x74,0x31,0x85,0xbe,0xe3,0xe1,0xa0,0x3e,0xac,0xb6,0x14,0xbe,
0xce,0x77,0x7c,0xbd,0xb1,0x84,0x96,0x3e,0x7c,0x9a,0x73,0x3e,
0xf5,0xa1,0xc0,0xbe,0x34,0x98,0x31,0xbe,0xae,0x2b,0x19,0x3e,
0x00,0xee,0x40,0x3b,0x29,0x43,0xd0,0xbd,0x51,0x87,0xc4,0xbc,
0xf3,0x9c,0xa5,0x3e,0x9e,0xb7,0x99,0xbe,0xab,0xc0,0x86,0x3e,
0x18,0x36,0xdf,0x3d,0xa1,0xfd,0xde,0x3d,0x8c,0x4d,0xb0,0x3e,
0x8e,0xe1,0x5a,0xbe,0x50,0xfd,0x45,0xbd,0xc0,0xac,0x21,0x3c,
0x37,0x59,0xd3,0x3e,0x77,0x9f,0xc7,0x3e,0x78,0x0f,0xd0,0xbd,
0xb0,0x47,0x9b,0xbe,0x72,0x93,0x50,0xbe,0xcd,0x78,0x83,0x3e,
0x18,0xd8,0x97,0xbe,0x32,0x26,0x82,0x3e,0xfa,0xd6,0x99,0xbe,
0xc7,0xb6,0xd3,0xbd,0x50,0x59,0x7e,0xbd,0xc6,0xdb,0x69,0x3e,
0x80,0x49,0x1c,0x3b,0x83,0x59,0x4f,0xbe,0xf6,0x11,0xe3,0xbd,
0xba,0x04,0x25,0x3e,0x33,0x69,0x24,0xbc,0x97,0xf5,0xfa,0x3e,
0x98,0xc3,0x95,0x3d,0xb2,0x65,0x13,0x3e,0xe5,0xf4,0x4b,0xbe,
0x46,0xfb,0x53,0xbe,0x35,0x68,0x95,0x3e,0x80,0x26,0x66,0xbe,
0xe2,0xb9,0x77,0x3e,0xf2,0x7a,0x10,0x3e,0x8c,0x36,0x63,0x3e,
0x16,0x39,0xa0,0x3e,0xc8,0xfa,0x43,0xbf,0xc0,0x92,0xbb,0x3d,
0x86,0x8f,0x42,0x3e,0x20,0x12,0x0e,0xbe,0xe7,0x98,0xd7,0xbd,
0xda,0x8f,0x32,0x3f,0x3d,0x57,0xa4,0xbf,0x17,0x05,0xa3,0x3e,
0xf6,0x6d,0x2c,0x3e,0x5e,0x16,0x27,0x3e,0x8a,0xd0,0xf3,0xbe,
0x3c,0x11,0x7d,0xbf,0x40,0x24,0xa2,0xbe,0x48,0x5d,0x48,0xbe,
0xd8,0xaa,0xd4,0x3d,0x92,0x79,0x43,0x3e,0x31,0x86,0xaf,0x3e,
0xa8,0x98,0xa6,0xbd,0x06,0x13,0x84,0x3e,0xae,0x56,0x54,0xbe,
0x68,0xa9,0x8c,0x3e,0x2d,0x3b,0x3e,0xbe,0x07,0xf4,0x93,0x3e,
0xdf,0x83,0x41,0xbf,0xbe,0x9d,0x72,0xbe,0xda,0xd6,0xfb,0xbd,
0x93,0xb3,0x3e,0xbe,0xc5,0xdc,0x71,0xbe,0x9e,0x63,0x39,0x3e,
0x48,0xb1,0xaf,0xbe,0xa2,0x64,0x2d,0x3e,0x4c,0xa6,0x8b,0xbe,
0x64,0xa1,0xd5,0xbe,0xac,0xe3,0x50,0x3e,0x56,0xb7,0xa7,0xbe,
0x96,0xd4,0x00,0xbe,0x48,0x9e,0x79,0xbf,0x07,0x42,0xe5,0x3e,
0x09,0xfb,0xd2,0xbe,0xfe,0x7f,0x4d,0xbe,0xd5,0xb1,0x53,0xbe,
0xee,0x83,0x7f,0xbe,0xe0,0x97,0x86,0xbe,0x6b,0xfc,0x31,0xbf,
0xae,0xb6,0x53,0x3e,0x32,0x3b,0xab,0xbe,0xd0,0xc2,0x4d,0xbe,
0x02,0xcc,0x2c,0x3e,0x26,0x98,0xaf,0xbe,0x55,0x48,0x05,0xbe,
0xe0,0x52,0x2a,0xbf,0x40,0x58,0x4a,0xbd,0x41,0x74,0x8b,0x3e,
0xff,0xfd,0x6e,0xbf,0x53,0xb8,0xa8,0x3e,0xc3,0x00,0x7f,0x3e,
0xd4,0xad,0x15,0xbe,0x4b,0x66,0x46,0x3e,0xbe,0x46,0x84,0x3d,
0xc2,0xbb,0x2e,0xbe,0xfc,0xf7,0xda,0x3d,0xb8,0x09,0xd2,0xbd,
0x7a,0x34,0xe8,0x3d,0x1a,0xd1,0x0a,0x3c,0x55,0xdd,0x0c,0xbe,
0x16,0xbd,0x52,0x3e,0x0e,0x60,0x36,0x3e,0x7c,0x72,0x83,0xbe,
0xfe,0xa2,0x11,0xbd,0xb2,0x82,0xdb,0x3e,0x1d,0xa5,0x0f,0xbe,
0x2e,0xf6,0x3b,0x3e,0xc0,0x0e,0x51,0x3c,0x10,0x5a,0x1d,0xbe,
0xf7,0x6b,0x0d,0xbf,0xaf,0x5b,0xb9,0xbd,0x96,0x7c,0x62,0x3e,
0xe2,0x1e,0xa2,0xbe,0x04,0x17,0xa7,0x3d,0x15,0x7e,0x83,0xbe,
0xba,0x6f,0x34,0x3e,0x50,0x39,0xe2,0xbc,0x3c,0x57,0x75,0x3e,
0x48,0xca,0xec,0x3d,0x01,0x09,0xab,0xbd,0x79,0xe8,0xa4,0x3d,
0xe9,0xdb,0xb3,0xbe,0xc8,0x22,0x31,0xbf,0x32,0x68,0x65,0x3e,
0x6e,0xde,0x99,0x3e,0x52,0x4c,0xa9,0xbd,0x68,0x64,0x9f,0xbe,
0x25,0x04,0x22,0xbe,0xc4,0x70,0xa5,0xbe,0x76,0xfa,0xc5,0x3e,
0x59,0xe7,0x0f,0x3e,0x49,0x05,0xb3,0xbe,0xc0,0xd8,0x41,0x3e,
0x9c,0xdd,0x94,0xbe,0xd0,0x04,0x98,0xbe,0xc8,0xf3,0x99,0x3e,
0x48,0x84,0xf0,0x3e,0x44,0x82,0xd9,0xbe,0xd8,0x37,0x9f,0xbe,
0x28,0x90,0xd2,0xbd,0x70,0x1f,0x0c,0xbd,0x95,0x5b,0xb7,0x3d,
0xbc,0xec,0x3b,0x3e,0xa0,0x95,0x45,0xbe,0x64,0x48,0x94,0xbd,
0x9c,0x1c,0xb3,0xbd,0xb2,0x2b,0x73,0x3e,0x78,0x64,0xfa,0x3d,
0x24,0xb0,0xd1,0xbd,0xa0,0xd9,0x1c,0xbd,0x60,0xb0,0x82,0xbc,
0xc3,0x83,0x6f,0xbe,0x41,0x11,0x9d,0xbd,0xda,0x4a,0x3c,0xbe,
0xcd,0x27,0x84,0x3e,0xf8,0x66,0x28,0x3d,0xcb,0x5d,0xe2,0x3e,
0x00,0x00,0x06,0x00,0x08,0x00,0x04,0x00,0x06,0x00,0x00,0x00,
0x04,0x00,0x00,0x00,0x40,0x00,0x00,0x00,0xbb,0x47,0x50,0x3d,
0x17,0x68,0x5b,0x3f,0x7f,0x62,0xe1,0xbc,0x56,0x92,0x4e,0x3f,
0xde,0x8e,0x49,0x3f,0x78,0x67,0x0d,0x3f,0x96,0x61,0x9f,0x3e,
0x20,0xcb,0xaa,0x3b,0xb9,0x88,0x0e,0x3f,0x71,0xec,0xa0,0x3f,
0x81,0xb5,0xb0,0xbe,0xba,0x49,0x7e,0x3a,0x99,0x25,0x10,0xbf,
0x09,0xf8,0xd0,0x3e,0xa7,0x5a,0xc1,0xbe,0x1d,0x08,0xef,0xbd,
0x40,0xfb,0xff,0xff,0x44,0xfb,0xff,0xff,0x0f,0x00,0x00,0x00,
0x4d,0x4c,0x49,0x52,0x20,0x43,0x6f,0x6e,0x76,0x65,0x72,0x74,
0x65,0x64,0x2e,0x00,0x01,0x00,0x00,0x00,0x14,0x00,0x00,0x00,
0x00,0x00,0x0e,0x00,0x18,0x00,0x14,0x00,0x10,0x00,0x0c,0x00,
0x08,0x00,0x04,0x00,0x0e,0x00,0x00,0x00,0x14,0x00,0x00,0x00,
0x1c,0x00,0x00,0x00,0xd8,0x00,0x00,0x00,0xdc,0x00,0x00,0x00,
0xe0,0x00,0x00,0x00,0x04,0x00,0x00,0x00,0x6d,0x61,0x69,0x6e,
0x00,0x00,0x00,0x00,0x03,0x00,0x00,0x00,0x80,0x00,0x00,0x00,
0x38,0x00,0x00,0x00,0x04,0x00,0x00,0x00,0x9a,0xff,0xff,0xff,
0x10,0x00,0x00,0x00,0x00,0x00,0x00,0x08,0x0c,0x00,0x00,0x00,
0x10,0x00,0x00,0x00,0xbc,0xfb,0xff,0xff,0x01,0x00,0x00,0x00,
0x09,0x00,0x00,0x00,0x03,0x00,0x00,0x00,0x08,0x00,0x00,0x00,
0x01,0x00,0x00,0x00,0x03,0x00,0x00,0x00,0xca,0xff,0xff,0xff,
0x10,0x00,0x00,0x00,0x00,0x00,0x00,0x08,0x10,0x00,0x00,0x00,
0x14,0x00,0x00,0x00,0xba,0xff,0xff,0xff,0x00,0x00,0x00,0x01,
0x01,0x00,0x00,0x00,0x08,0x00,0x00,0x00,0x03,0x00,0x00,0x00,
0x07,0x00,0x00,0x00,0x02,0x00,0x00,0x00,0x04,0x00,0x00,0x00,
0x00,0x00,0x0e,0x00,0x16,0x00,0x00,0x00,0x10,0x00,0x0c,0x00,
0x0b,0x00,0x04,0x00,0x0e,0x00,0x00,0x00,0x18,0x00,0x00,0x00,
0x00,0x00,0x00,0x08,0x18,0x00,0x00,0x00,0x1c,0x00,0x00,0x00,
0x00,0x00,0x06,0x00,0x08,0x00,0x07,0x00,0x06,0x00,0x00,0x00,
0x00,0x00,0x00,0x01,0x01,0x00,0x00,0x00,0x07,0x00,0x00,0x00,
0x03,0x00,0x00,0x00,0x00,0x00,0x00,0x00,0x06,0x00,0x00,0x00,
0x05,0x00,0x00,0x00,0x01,0x00,0x00,0x00,0x09,0x00,0x00,0x00,
0x01,0x00,0x00,0x00,0x00,0x00,0x00,0x00,0x0a,0x00,0x00,0x00,
0x6c,0x03,0x00,0x00,0x14,0x03,0x00,0x00,0xbc,0x02,0x00,0x00,
0x80,0x02,0x00,0x00,0x28,0x02,0x00,0x00,0xd4,0x01,0x00,0x00,
0x88,0x01,0x00,0x00,0xf8,0x00,0x00,0x00,0x60,0x00,0x00,0x00,
0x04,0x00,0x00,0x00,0xd2,0xfc,0xff,0xff,0x00,0x00,0x00,0x01,
0x14,0x00,0x00,0x00,0x1c,0x00,0x00,0x00,0x1c,0x00,0x00,0x00,
0x0a,0x00,0x00,0x00,0x34,0x00,0x00,0x00,0x02,0x00,0x00,0x00,
0xff,0xff,0xff,0xff,0x01,0x00,0x00,0x00,0xbc,0xfc,0xff,0xff,
0x1b,0x00,0x00,0x00,0x53,0x74,0x61,0x74,0x65,0x66,0x75,0x6c,
0x50,0x61,0x72,0x74,0x69,0x74,0x69,0x6f,0x6e,0x65,0x64,0x43,
0x61,0x6c,0x6c,0x5f,0x31,0x3a,0x30,0x00,0x02,0x00,0x00,0x00,
0x01,0x00,0x00,0x00,0x01,0x00,0x00,0x00,0x2a,0xfd,0xff,0xff,
0x00,0x00,0x00,0x01,0x14,0x00,0x00,0x00,0x1c,0x00,0x00,0x00,
0x1c,0x00,0x00,0x00,0x09,0x00,0x00,0x00,0x70,0x00,0x00,0x00,
0x02,0x00,0x00,0x00,0xff,0xff,0xff,0xff,0x10,0x00,0x00,0x00,
0x14,0xfd,0xff,0xff,0x54,0x00,0x00,0x00,0x73,0x65,0x71,0x75,
0x65,0x6e,0x74,0x69,0x61,0x6c,0x5f,0x31,0x2f,0x64,0x65,0x6e,
0x73,0x65,0x5f,0x31,0x5f,0x32,0x2f,0x4d,0x61,0x74,0x4d,0x75,
0x6c,0x3b,0x73,0x65,0x71,0x75,0x65,0x6e,0x74,0x69,0x61,0x6c,
0x5f,0x31,0x2f,0x64,0x65,0x6e,0x73,0x65,0x5f,0x31,0x5f,0x32,
0x2f,0x52,0x65,0x6c,0x75,0x3b,0x73,0x65,0x71,0x75,0x65,0x6e,
0x74,0x69,0x61,0x6c,0x5f,0x31,0x2f,0x64,0x65,0x6e,0x73,0x65,
0x5f,0x31,0x5f,0x32,0x2f,0x41,0x64,0x64,0x00,0x00,0x00,0x00,
0x02,0x00,0x00,0x00,0x01,0x00,0x00,0x00,0x10,0x00,0x00,0x00,
0xbe,0xfd,0xff,0xff,0x00,0x00,0x00,0x01,0x14,0x00,0x00,0x00,
0x1c,0x00,0x00,0x00,0x1c,0x00,0x00,0x00,0x08,0x00,0x00,0x00,
0x68,0x00,0x00,0x00,0x02,0x00,0x00,0x00,0xff,0xff,0xff,0xff,
0x20,0x00,0x00,0x00,0xa8,0xfd,0xff,0xff,0x4e,0x00,0x00,0x00,
0x73,0x65,0x71,0x75,0x65,0x6e,0x74,0x69,0x61,0x6c,0x5f,0x31,
0x2f,0x64,0x65,0x6e,0x73,0x65,0x5f,0x31,0x2f,0x4d,0x61,0x74,
0x4d,0x75,0x6c,0x3b,0x73,0x65,0x71,0x75,0x65,0x6e,0x74,0x69,
0x61,0x6c,0x5f,0x31,0x2f,0x64,0x65,0x6e,0x73,0x65,0x5f,0x31,
0x2f,0x52,0x65,0x6c,0x75,0x3b,0x73,0x65,0x71,0x75,0x65,0x6e,
0x74,0x69,0x61,0x6c,0x5f,0x31,0x2f,0x64,0x65,0x6e,0x73,0x65,
0x5f,0x31,0x2f,0x41,0x64,0x64,0x00,0x00,0x02,0x00,0x00,0x00,
0x01,0x00,0x00,0x00,0x20,0x00,0x00,0x00,0x9e,0xfe,0xff,0xff,
0x00,0x00,0x00,0x01,0x10,0x00,0x00,0x00,0x10,0x00,0x00,0x00,
0x07,0x00,0x00,0x00,0x28,0x00,0x00,0x00,0x24,0xfe,0xff,0xff,
0x1b,0x00,0x00,0x00,0x73,0x65,0x71,0x75,0x65,0x6e,0x74,0x69,
0x61,0x6c,0x5f,0x31,0x2f,0x64,0x65,0x6e,0x73,0x65,0x5f,0x31,
0x2f,0x4d,0x61,0x74,0x4d,0x75,0x6c,0x00,0x02,0x00,0x00,0x00,
0x20,0x00,0x00,0x00,0x01,0x00,0x00,0x00,0xe6,0xfe,0xff,0xff,
0x00,0x00,0x00,0x01,0x10,0x00,0x00,0x00,0x10,0x00,0x00,0x00,
0x06,0x00,0x00,0x00,0x34,0x00,0x00,0x00,0x6c,0xfe,0xff,0xff,
0x27,0x00,0x00,0x00,0x73,0x65,0x71,0x75,0x65,0x6e,0x74,0x69,
0x61,0x6c,0x5f,0x31,0x2f,0x64,0x65,0x6e,0x73,0x65,0x5f,0x31,
0x2f,0x41,0x64,0x64,0x2f,0x52,0x65,0x61,0x64,0x56,0x61,0x72,
0x69,0x61,0x62,0x6c,0x65,0x4f,0x70,0x00,0x01,0x00,0x00,0x00,
0x20,0x00,0x00,0x00,0x36,0xff,0xff,0xff,0x00,0x00,0x00,0x01,
0x10,0x00,0x00,0x00,0x10,0x00,0x00,0x00,0x05,0x00,0x00,0x00,
0x38,0x00,0x00,0x00,0xbc,0xfe,0xff,0xff,0x29,0x00,0x00,0x00,
0x73,0x65,0x71,0x75,0x65,0x6e,0x74,0x69,0x61,0x6c,0x5f,0x31,
0x2f,0x64,0x65,0x6e,0x73,0x65,0x5f,0x31,0x5f,0x32,0x2f,0x41,
0x64,0x64,0x2f,0x52,0x65,0x61,0x64,0x56,0x61,0x72,0x69,0x61,
0x62,0x6c,0x65,0x4f,0x70,0x00,0x00,0x00,0x01,0x00,0x00,0x00,
0x10,0x00,0x00,0x00,0x8a,0xff,0xff,0xff,0x00,0x00,0x00,0x01,
0x10,0x00,0x00,0x00,0x10,0x00,0x00,0x00,0x04,0x00,0x00,0x00,
0x1c,0x00,0x00,0x00,0x10,0xff,0xff,0xff,0x0f,0x00,0x00,0x00,
0x61,0x72,0x69,0x74,0x68,0x2e,0x63,0x6f,0x6e,0x73,0x74,0x61,
0x6e,0x74,0x32,0x00,0x01,0x00,0x00,0x00,0x01,0x00,0x00,0x00,
0xc2,0xff,0xff,0xff,0x00,0x00,0x00,0x01,0x10,0x00,0x00,0x00,
0x10,0x00,0x00,0x00,0x03,0x00,0x00,0x00,0x1c,0x00,0x00,0x00,
0x48,0xff,0xff,0xff,0x0f,0x00,0x00,0x00,0x61,0x72,0x69,0x74,
0x68,0x2e,0x63,0x6f,0x6e,0x73,0x74,0x61,0x6e,0x74,0x31,0x00,
0x02,0x00,0x00,0x00,0x10,0x00,0x00,0x00,0x20,0x00,0x00,0x00,
0x00,0x00,0x16,0x00,0x18,0x00,0x14,0x00,0x00,0x00,0x10,0x00,
0x0c,0x00,0x08,0x00,0x00,0x00,0x00,0x00,0x00,0x00,0x07,0x00,
0x16,0x00,0x00,0x00,0x00,0x00,0x00,0x01,0x10,0x00,0x00,0x00,
0x10,0x00,0x00,0x00,0x02,0x00,0x00,0x00,0x1c,0x00,0x00,0x00,
0x9c,0xff,0xff,0xff,0x0e,0x00,0x00,0x00,0x61,0x72,0x69,0x74,
0x68,0x2e,0x63,0x6f,0x6e,0x73,0x74,0x61,0x6e,0x74,0x00,0x00,
0x02,0x00,0x00,0x00,0x01,0x00,0x00,0x00,0x10,0x00,0x00,0x00,
0x00,0x00,0x16,0x00,0x1c,0x00,0x18,0x00,0x00,0x00,0x14,0x00,
0x10,0x00,0x0c,0x00,0x00,0x00,0x00,0x00,0x08,0x00,0x07,0x00,
0x16,0x00,0x00,0x00,0x00,0x00,0x00,0x01,0x14,0x00,0x00,0x00,
0x20,0x00,0x00,0x00,0x20,0x00,0x00,0x00,0x01,0x00,0x00,0x00,
0x3c,0x00,0x00,0x00,0x02,0x00,0x00,0x00,0xff,0xff,0xff,0xff,
0x01,0x00,0x00,0x00,0x04,0x00,0x04,0x00,0x04,0x00,0x00,0x00,
0x1e,0x00,0x00,0x00,0x73,0x65,0x72,0x76,0x69,0x6e,0x67,0x5f,
0x64,0x65,0x66,0x61,0x75,0x6c,0x74,0x5f,0x6b,0x65,0x72,0x61,
0x73,0x5f,0x74,0x65,0x6e,0x73,0x6f,0x72,0x3a,0x30,0x00,0x00,
0x02,0x00,0x00,0x00,0x01,0x00,0x00,0x00,0x01,0x00,0x00,0x00,
0x01,0x00,0x00,0x00,0x10,0x00,0x00,0x00,0x0c,0x00,0x0c,0x00,
0x0b,0x00,0x00,0x00,0x00,0x00,0x04,0x00,0x0c,0x00,0x00,0x00,
0x09,0x00,0x00,0x00,0x00,0x00,0x00,0x09
};

#endif //SINE_2L_MODEL_TFLITE_H