#ifndef CMPLX_SINE_2L_MODEL_TFLITE_H
#define CMPLX_SINE_2L_MODEL_TFLITE_H

/*
 Author: Mouli Sankaran 
 CAUTION: This is an auto generated file.
 DO NOT EDIT OR MAKE ANY CHANGES TO IT.
 This model data was generated on Thu Oct  3 11:42:55 2024

 Tools used:
 Python:3.11.5 | packaged by Anaconda, Inc. | (main, Sep 11 2023, 13:26:23) [MSC v.1916 64 bit (AMD64)]
 Numpy:1.24.3
 TensorFlow:2.17.0
 Keras: 3.5.0

 Model details are:
 NUM_OF_EPOCHS = 900
 BATCH_SIZE    = 16
*/

// const int DENSE1_SIZE = 32;
// const int DENSE2_SIZE = 16;

unsigned int cmplx_sine_2L_model_tflite_len = 4304;

// Since the size is 4304 for this model the Tensor arena size needs to be
#define CF_TENSOR_ARENA_SIZE 2*1024

unsigned char cmplx_sine_2L_model_tflite[] = {
0x1c,0x00,0x00,0x00,0x54,0x46,0x4c,0x33,0x14,0x00,0x20,0x00,
0x1c,0x00,0x18,0x00,0x14,0x00,0x10,0x00,0x0c,0x00,0x00,0x00,
0x08,0x00,0x04,0x00,0x14,0x00,0x00,0x00,0x1c,0x00,0x00,0x00,
0x98,0x00,0x00,0x00,0xf0,0x00,0x00,0x00,0x94,0x0b,0x00,0x00,
0xa4,0x0b,0x00,0x00,0x7c,0x10,0x00,0x00,0x03,0x00,0x00,0x00,
0x01,0x00,0x00,0x00,0x10,0x00,0x00,0x00,0x00,0x00,0x0a,0x00,
0x10,0x00,0x0c,0x00,0x08,0x00,0x04,0x00,0x0a,0x00,0x00,0x00,
0x0c,0x00,0x00,0x00,0x1c,0x00,0x00,0x00,0x3c,0x00,0x00,0x00,
0x0f,0x00,0x00,0x00,0x73,0x65,0x72,0x76,0x69,0x6e,0x67,0x5f,
0x64,0x65,0x66,0x61,0x75,0x6c,0x74,0x00,0x01,0x00,0x00,0x00,
0x04,0x00,0x00,0x00,0x90,0xff,0xff,0xff,0x09,0x00,0x00,0x00,
0x04,0x00,0x00,0x00,0x08,0x00,0x00,0x00,0x6f,0x75,0x74,0x70,
0x75,0x74,0x5f,0x30,0x00,0x00,0x00,0x00,0x01,0x00,0x00,0x00,
0x04,0x00,0x00,0x00,0x3a,0xf5,0xff,0xff,0x04,0x00,0x00,0x00,
0x0c,0x00,0x00,0x00,0x6b,0x65,0x72,0x61,0x73,0x5f,0x74,0x65,
0x6e,0x73,0x6f,0x72,0x00,0x00,0x00,0x00,0x02,0x00,0x00,0x00,
0x34,0x00,0x00,0x00,0x04,0x00,0x00,0x00,0xdc,0xff,0xff,0xff,
0x0c,0x00,0x00,0x00,0x04,0x00,0x00,0x00,0x13,0x00,0x00,0x00,
0x43,0x4f,0x4e,0x56,0x45,0x52,0x53,0x49,0x4f,0x4e,0x5f,0x4d,
0x45,0x54,0x41,0x44,0x41,0x54,0x41,0x00,0x08,0x00,0x0c,0x00,
0x08,0x00,0x04,0x00,0x08,0x00,0x00,0x00,0x0b,0x00,0x00,0x00,
0x04,0x00,0x00,0x00,0x13,0x00,0x00,0x00,0x6d,0x69,0x6e,0x5f,
0x72,0x75,0x6e,0x74,0x69,0x6d,0x65,0x5f,0x76,0x65,0x72,0x73,
0x69,0x6f,0x6e,0x00,0x0d,0x00,0x00,0x00,0xa0,0x0a,0x00,0x00,
0x98,0x0a,0x00,0x00,0x48,0x0a,0x00,0x00,0x30,0x02,0x00,0x00,
0x1c,0x02,0x00,0x00,0xcc,0x01,0x00,0x00,0x3c,0x01,0x00,0x00,
0xac,0x00,0x00,0x00,0xa4,0x00,0x00,0x00,0x9c,0x00,0x00,0x00,
0x94,0x00,0x00,0x00,0x74,0x00,0x00,0x00,0x04,0x00,0x00,0x00,
0xea,0xf5,0xff,0xff,0x04,0x00,0x00,0x00,0x60,0x00,0x00,0x00,
0x10,0x00,0x00,0x00,0x00,0x00,0x00,0x00,0x08,0x00,0x0e,0x00,
0x08,0x00,0x04,0x00,0x08,0x00,0x00,0x00,0x10,0x00,0x00,0x00,
0x24,0x00,0x00,0x00,0x00,0x00,0x06,0x00,0x08,0x00,0x04,0x00,
0x06,0x00,0x00,0x00,0x04,0x00,0x00,0x00,0x00,0x00,0x00,0x00,
0x0c,0x00,0x18,0x00,0x14,0x00,0x10,0x00,0x0c,0x00,0x04,0x00,
0x0c,0x00,0x00,0x00,0x81,0x73,0x35,0xf5,0x27,0x00,0xc7,0x45,
0x02,0x00,0x00,0x00,0x02,0x00,0x00,0x00,0x04,0x00,0x00,0x00,
0x06,0x00,0x00,0x00,0x32,0x2e,0x31,0x37,0x2e,0x30,0x00,0x00,
0x56,0xf6,0xff,0xff,0x04,0x00,0x00,0x00,0x10,0x00,0x00,0x00,
0x31,0x2e,0x35,0x2e,0x30,0x00,0x00,0x00,0x00,0x00,0x00,0x00,
0x00,0x00,0x00,0x00,0x60,0xf1,0xff,0xff,0x64,0xf1,0xff,0xff,
0x68,0xf1,0xff,0xff,0x7e,0xf6,0xff,0xff,0x04,0x00,0x00,0x00,
0x80,0x00,0x00,0x00,0xb5,0xd7,0xd4,0xbe,0x38,0x07,0x12,0x3e,
0xb2,0x5e,0x14,0xbe,0x61,0x86,0xa4,0x3e,0xde,0x5e,0xec,0xbd,
0xb9,0x6b,0xcf,0xbd,0xfc,0xa6,0xca,0xbe,0x97,0xc6,0xd3,0x3e,
0x14,0xdc,0x0b,0xbe,0x9c,0xa9,0x83,0xbe,0xcd,0x40,0x63,0xbe,
0x11,0x6c,0x77,0x3c,0x6e,0x00,0x7a,0xbe,0x52,0x45,0x90,0xbe,
0x99,0x9e,0xee,0xbc,0x43,0xe3,0x01,0xbf,0xee,0x2c,0xeb,0xbd,
0x65,0x2f,0xce,0x3d,0xf2,0x1b,0x22,0xbe,0x44,0x0d,0xca,0xbd,
0x45,0x69,0x62,0xbd,0x47,0xbd,0xa8,0xbe,0x10,0x5d,0xcd,0x3e,
0xe2,0x9b,0x7d,0xbe,0xa8,0x95,0x89,0xbe,0x20,0x53,0xbc,0xbd,
0xa0,0xa1,0xee,0xbd,0x05,0xb8,0x18,0xbe,0x40,0xe8,0x09,0x3f,
0xcd,0x44,0x86,0xbd,0x56,0x7f,0x12,0xbe,0xd4,0x7b,0x8a,0x3e,
0x0a,0xf7,0xff,0xff,0x04,0x00,0x00,0x00,0x80,0x00,0x00,0x00,
0x00,0x00,0x00,0x00,0x55,0xcc,0x0c,0xbe,0x00,0x00,0x00,0x00,
0x2f,0x37,0x0b,0x3d,0x7e,0xc6,0x95,0x3e,0xd4,0x03,0xc0,0x3e,
0x00,0x00,0x00,0x00,0x1a,0x00,0x80,0xbc,0x00,0x00,0x00,0x00,
0x00,0x00,0x00,0x00,0x00,0x00,0x00,0x00,0x5f,0x2d,0xde,0x3e,
0x00,0x00,0x00,0x00,0x00,0x00,0x00,0x00,0xf9,0xef,0x08,0x3f,
0xef,0xfa,0xcd,0x3f,0xbe,0xbf,0x42,0x3f,0x5d,0x14,0x17,0x3f,
0x00,0x00,0x00,0x00,0x00,0x00,0x00,0x00,0x76,0xbc,0x1b,0x3f,
0x00,0x00,0x00,0x00,0xf3,0xe5,0x8c,0xbe,0x00,0x00,0x00,0x00,
0x34,0xe2,0xa9,0x3f,0x00,0x00,0x00,0x00,0x00,0x00,0x00,0x00,
0x7c,0x5e,0x9c,0x3f,0x52,0x4e,0x47,0xbd,0xda,0xff,0x78,0x3e,
0x2c,0x97,0x5d,0x3f,0xef,0x9d,0xca,0xbd,0x96,0xf7,0xff,0xff,
0x04,0x00,0x00,0x00,0x40,0x00,0x00,0x00,0xd2,0x5c,0x4e,0xbd,
0x00,0x00,0x00,0x00,0x60,0xbc,0x48,0xbc,0x68,0xab,0xf3,0x3d,
0x22,0xed,0xd5,0x3e,0xab,0xe0,0xdc,0x3d,0x19,0x5c,0xf1,0x3e,
0x00,0x00,0x00,0x00,0x00,0x00,0x00,0x00,0xa0,0xb0,0xe6,0x3d,
0xd7,0x88,0xf1,0x3d,0xdf,0xbb,0x6f,0x3e,0x36,0x3e,0x4f,0xbb,
0x00,0x00,0x00,0x00,0xc1,0x0b,0x03,0xbf,0xf0,0x0e,0x1d,0xbc,
0xe2,0xf7,0xff,0xff,0x04,0x00,0x00,0x00,0x04,0x00,0x00,0x00,
0x06,0x04,0x06,0x3e,0xf2,0xf7,0xff,0xff,0x04,0x00,0x00,0x00,
0x00,0x08,0x00,0x00,0xdc,0xa5,0x2d,0xbe,0xd4,0x13,0x96,0xbe,
0x22,0x6d,0x58,0x3e,0xbc,0xb0,0xbe,0xbd,0x1f,0x52,0x7c,0x3b,
0xae,0x9d,0x55,0xbe,0xa0,0xf8,0x8b,0xbe,0x8b,0xcb,0xb1,0xbe,
0xc8,0xac,0x53,0x3d,0xec,0xe1,0xb8,0x3d,0xfe,0x4b,0x0b,0xbe,
0x61,0x57,0x48,0x3d,0xde,0x43,0x39,0x3e,0x00,0xa2,0xa2,0x3d,
0xa6,0xb5,0x8f,0x3e,0xb1,0x12,0x8c,0xbd,0x85,0x01,0x13,0x3e,
0xf7,0x0f,0x9f,0x3d,0xd8,0xfb,0x72,0xbd,0x20,0xf7,0xa9,0xbc,
0x2f,0x80,0x10,0x3e,0xa1,0x47,0x93,0xbe,0x76,0xda,0x8e,0x3e,
0xe5,0x0a,0xb0,0x3e,0x79,0x15,0x28,0x3e,0x1d,0xdb,0x89,0xbe,
0xbf,0x04,0x94,0xbe,0xce,0x94,0x86,0xbe,0xaa,0x92,0x9f,0xbe,
0x3e,0xda,0x68,0xbe,0x53,0x21,0x8e,0xbd,0x76,0x69,0x26,0xbe,
0x6c,0xc3,0xa2,0x3d,0x67,0x2c,0x22,0xbe,0xf3,0xf5,0x8b,0x3e,
0x33,0x5f,0xa9,0x3e,0x2a,0x47,0x4c,0xbe,0x5c,0x76,0x7f,0xbe,
0xed,0xb1,0xaa,0x3e,0x25,0x8d,0x33,0xbe,0x1a,0x65,0x55,0x3e,
0x58,0xab,0x61,0xbd,0x73,0xe2,0x35,0xbe,0xc5,0x39,0x55,0xbe,
0x75,0x7d,0x3b,0xbe,0x98,0x06,0xc5,0x3d,0x48,0x66,0xd0,0x3d,
0x6f,0x54,0x3d,0xbe,0x23,0x05,0xb3,0xbe,0xa0,0x4e,0x82,0xbc,
0xb2,0x0b,0x26,0x3e,0x14,0xef,0x90,0xbd,0x80,0x56,0xc6,0xbc,
0x23,0x14,0x94,0xbe,0xec,0x23,0x0c,0xbe,0xb8,0x75,0xac,0xbd,
0xa1,0xb1,0xa8,0x3e,0x50,0x36,0xa6,0xbc,0x8c,0xb5,0x9a,0xbe,
0x46,0x45,0xaf,0xbe,0xc3,0x64,0x31,0xbe,0xb4,0x42,0xa1,0xbe,
0xdf,0x12,0x39,0xbe,0x58,0xb7,0xac,0x3d,0xa8,0x5a,0xf2,0x3d,
0x9f,0xe3,0x65,0x3e,0x40,0x01,0xa3,0xbd,0x76,0x9a,0xcb,0xbd,
0xf6,0xb9,0x8f,0x3d,0xf6,0xb6,0x26,0x3e,0x9b,0x39,0x80,0x3e,
0x79,0x53,0xdc,0x3d,0x07,0xe8,0xaf,0xbe,0xdc,0xbe,0x97,0x3d,
0xb8,0xc9,0x08,0x3e,0x61,0xb6,0x25,0xbe,0x5a,0x90,0x2a,0xbe,
0x87,0xc3,0x88,0x3e,0x0e,0x1f,0x20,0xbe,0xf8,0x78,0x0c,0xbd,
0x3d,0xcf,0x78,0xbe,0x8c,0x34,0x22,0x3d,0x38,0xb6,0xd0,0x3d,
0x80,0xff,0xe0,0xbb,0x3f,0x43,0xdb,0xbd,0xea,0xc2,0x7d,0x3e,
0x96,0x77,0xbf,0x3d,0x52,0x72,0x1f,0x3e,0x7d,0x5a,0x8f,0x3e,
0x20,0x9b,0x2e,0x3d,0x1c,0x2e,0x87,0xbd,0xa9,0x27,0xa4,0xbe,
0x97,0x94,0xa1,0x3c,0x6b,0x75,0x83,0xbe,0xff,0x3e,0x33,0xbe,
0x3f,0xf5,0x3c,0xbe,0x16,0x56,0x29,0x3e,0x18,0x24,0xda,0xbc,
0x80,0xa3,0xe2,0xbb,0x26,0x63,0x86,0x3e,0x08,0x56,0x39,0x3f,
0x31,0xb7,0xfd,0x3e,0x32,0xd9,0x18,0x3e,0x09,0x6e,0x27,0xbe,
0xa0,0x0c,0xe6,0x3c,0x3d,0x06,0xad,0x3e,0x6a,0x75,0x60,0x3e,
0xc2,0xdc,0xdb,0xbd,0x95,0xb6,0x2e,0xbe,0xa0,0xc9,0x17,0x3d,
0x1c,0x47,0xe5,0x3e,0x82,0xc1,0x1e,0x40,0xce,0x3b,0xe0,0x3d,
0x9a,0xfc,0x4e,0x3e,0x60,0xe3,0x93,0xbc,0xc4,0x36,0x89,0xbe,
0xf8,0x87,0xd6,0x3e,0x00,0x9f,0xd3,0xbc,0x72,0xbc,0x48,0xbd,
0x4e,0xde,0x7f,0x3e,0xb9,0x88,0x35,0xbf,0x51,0x62,0xa9,0x3e,
0x20,0x4d,0x92,0xbc,0x64,0x07,0xd4,0xbe,0x00,0x32,0x65,0x3e,
0xb7,0xa2,0xba,0xbd,0x10,0x45,0x5b,0x3e,0xcc,0xc8,0x84,0x3e,
0x92,0x39,0x1e,0x3e,0xe9,0x00,0x03,0x3c,0xe5,0x72,0x37,0xbe,
0x3d,0xe3,0x94,0xbf,0xaa,0x8c,0xf7,0xbe,0x55,0xf1,0xaa,0xbc,
0x0f,0x54,0xb2,0x3e,0x84,0x74,0x81,0xbf,0x31,0x1c,0x8e,0x3e,
0x55,0xda,0xac,0x3e,0x89,0x0b,0xa2,0xbe,0xb6,0x24,0x9c,0xbe,
0x40,0xc8,0x3d,0xbc,0x3c,0x1e,0xab,0x3d,0x73,0x89,0x73,0x3d,
0x37,0xe1,0x72,0x3f,0x60,0x00,0xbd,0x3c,0x6b,0x73,0x68,0xbe,
0xbc,0x0c,0x90,0xbe,0xa3,0xb9,0x42,0xbe,0x1a,0x74,0x95,0x3e,
0x76,0x6f,0x33,0x3e,0x7e,0x3c,0x73,0xbf,0x7c,0x04,0xbe,0x3d,
0x48,0x52,0xb4,0x3e,0x8b,0xfb,0xa8,0xbe,0xc0,0x31,0x94,0x3b,
0x07,0xf9,0x06,0x3f,0x17,0xfa,0x22,0xbf,0x55,0x2e,0xa9,0x3e,
0x73,0xee,0xff,0x3e,0x2a,0x30,0xaf,0xbf,0x08,0xba,0x7a,0xbd,
0x78,0xb4,0x07,0xbd,0x5a,0xa3,0x37,0x3e,0xe4,0x9c,0x83,0x3e,
0x1a,0x42,0xee,0x3e,0x99,0x1a,0x82,0x3e,0xcd,0x9f,0x47,0xbe,
0xd7,0xaf,0x96,0x3e,0xd6,0x2d,0x1f,0x3e,0x50,0x5a,0xef,0x3c,
0x34,0x3c,0xb0,0x3d,0xa5,0x55,0x65,0x3e,0xc0,0x65,0xb9,0xbd,
0x16,0xb2,0x56,0x3e,0x74,0x04,0x99,0x3d,0xf2,0x19,0x18,0x40,
0xcf,0x67,0xe3,0xbc,0xc2,0xb3,0xba,0x3d,0xdc,0x67,0xa3,0x3d,
0x89,0x12,0x8e,0x3e,0xc1,0x70,0x49,0x3d,0xd8,0x98,0x94,0xbd,
0xe8,0x7a,0xad,0x3e,0x68,0x82,0x85,0xbd,0xf8,0xf5,0x35,0xbf,
0x20,0x99,0xf6,0x3d,0x0f,0x51,0x34,0xbe,0xb6,0xbf,0x38,0x3e,
0xa6,0xfa,0x5d,0x3e,0x90,0xf5,0x72,0x3d,0x4d,0x35,0xef,0x3e,
0x81,0x2e,0x79,0xbe,0xe0,0x86,0x47,0xbe,0x50,0x40,0xa8,0xbd,
0xd5,0xf6,0xab,0xbe,0xf9,0x52,0x7f,0xbe,0xca,0xc1,0x9b,0xbf,
0x6d,0xdb,0x32,0xbf,0x20,0x7b,0xca,0xbd,0x2e,0x1a,0x80,0xbe,
0x13,0xf2,0xad,0x3e,0x40,0xdd,0x88,0xbb,0x28,0x02,0x83,0x3d,
0xd4,0x60,0xb3,0x3e,0xa7,0x1d,0x9a,0x3e,0xea,0x18,0x71,0x3e,
0x88,0x25,0xf6,0x3e,0xed,0x37,0x78,0xc0,0x45,0x57,0x34,0x3f,
0x8f,0x16,0x7a,0x3e,0x95,0x06,0x96,0x3e,0xd0,0x60,0x31,0xbd,
0xc9,0xc4,0xf3,0x3e,0x10,0xbe,0x8a,0x3d,0x9c,0xe5,0xb7,0xbd,
0xdc,0xc3,0x9d,0xbd,0x47,0x33,0xca,0x3f,0x13,0x89,0xab,0xbe,
0x49,0xc0,0x94,0xbe,0xb4,0x4f,0x8b,0x3f,0x71,0x0e,0x9b,0xbe,
0xe7,0x10,0x59,0xbe,0xbf,0xab,0x55,0x3f,0x4a,0xc2,0xd0,0xbe,
0x5e,0xb4,0x6e,0xbe,0xf7,0x5c,0x88,0xbe,0x5e,0x22,0x73,0x3e,
0x2a,0x68,0x39,0x3e,0x00,0x12,0xca,0x3c,0xe5,0xcc,0x85,0x3e,
0x30,0xdb,0xef,0xbc,0x80,0x26,0x1c,0x3c,0xc2,0x14,0x72,0x3e,
0xc8,0xd6,0x85,0xbe,0x80,0xfe,0x0d,0x3e,0xe0,0x00,0x62,0x3d,
0x96,0xda,0x79,0x3e,0x10,0x85,0xe5,0xbc,0x69,0x87,0xb3,0xbe,
0xd0,0x5c,0x87,0xbc,0xf8,0xb4,0x20,0x3d,0x17,0x8b,0xb3,0xbe,
0x7d,0xaf,0xa1,0xbe,0x08,0x36,0x47,0xbd,0xa7,0xe4,0x8a,0x3e,
0x80,0xc8,0x90,0xbd,0x2e,0xe8,0xa9,0xbe,0x60,0xb5,0xc2,0xbc,
0xb0,0x11,0x8c,0x3d,0xb7,0x0e,0x98,0xbe,0x3e,0xd3,0x64,0xbe,
0x26,0x4f,0x70,0xbe,0x50,0x0d,0x67,0xbd,0x2a,0xf5,0x69,0x3e,
0x26,0x65,0x91,0xbe,0x5a,0x1c,0x24,0xbe,0x00,0x56,0x26,0xbc,
0x40,0xb8,0x81,0xbd,0x7c,0x72,0xd8,0x3d,0x71,0x39,0x8f,0x3e,
0x86,0x00,0x7e,0x3e,0xa0,0xc0,0xa3,0xbc,0xa5,0xbd,0xa3,0xbe,
0xdc,0x18,0xac,0x3d,0x00,0xe3,0x93,0x3c,0x90,0x80,0xe6,0xbc,
0x97,0x5f,0x8f,0x3e,0x88,0xe0,0x6b,0xbd,0x32,0x8b,0x5b,0x3e,
0x98,0xbc,0x0c,0xbd,0x36,0x46,0xa7,0xbe,0xc4,0x9d,0xb2,0xbe,
0x7c,0xd9,0x05,0x3e,0x9b,0x5e,0xb1,0x3e,0xdc,0xd1,0xac,0x3d,
0x60,0x0d,0x94,0xbe,0xcb,0xeb,0x86,0x3e,0xb6,0x02,0xb4,0xbe,
0x7f,0xb5,0x93,0xbe,0x76,0x5c,0x65,0x3e,0xf1,0xb2,0xb3,0x3e,
0xaa,0xa0,0x70,0x3e,0xe9,0xcf,0x89,0x3e,0xa0,0xb2,0x7e,0xbe,
0x8d,0x81,0xa5,0xbe,0xe8,0x2f,0x9d,0x3d,0x3a,0xcd,0x7f,0xbe,
0x3b,0x45,0xa6,0xbe,0xc6,0xa1,0xf0,0xbd,0xd2,0x81,0xa8,0x3b,
0xde,0xd7,0x4a,0x3e,0x19,0x10,0x98,0x3e,0x3e,0x46,0x41,0x3f,
0x1a,0x88,0x68,0x3e,0xd0,0x8a,0x8c,0x3c,0xfa,0xac,0x9a,0x3e,
0x74,0x16,0x84,0xbe,0xc8,0x46,0x70,0x3d,0xe0,0x31,0x71,0x3d,
0x20,0xb7,0x4b,0xbd,0x28,0x50,0x76,0x3d,0x70,0x06,0x89,0xbe,
0xda,0x5f,0x90,0x3e,0x54,0x16,0xea,0x3f,0x76,0x45,0xed,0x3e,
0x60,0xb5,0x2c,0x3e,0x12,0x7f,0x82,0xbe,0x4d,0xf8,0x21,0xbe,
0x57,0xd6,0x14,0xbe,0x94,0x2d,0xab,0xbd,0x34,0xc2,0x6c,0x3d,
0x87,0x5c,0x9b,0x3e,0xbf,0x99,0xa8,0xbf,0x2d,0xf8,0x06,0xbe,
0x58,0x91,0x03,0x3d,0xf4,0x16,0xa6,0xbd,0xe2,0xf5,0xef,0x3e,
0x7f,0x2f,0xb0,0xbc,0x3f,0xa9,0xd5,0x3e,0x41,0xfc,0x2f,0xbe,
0xfa,0xb3,0x1c,0x3e,0x3d,0x61,0xce,0x3e,0x0a,0x9c,0x4c,0x3e,
0xb3,0xb1,0x80,0x3e,0x8e,0xb2,0x81,0x3f,0x1e,0xbd,0x18,0x3e,
0xbb,0x5b,0x8e,0x3e,0x80,0xfc,0xe5,0x3e,0xd0,0x5d,0x2a,0xbd,
0x20,0xf8,0x07,0x3d,0xa8,0x81,0x72,0xbe,0x62,0x31,0xef,0x3d,
0x50,0x82,0xe2,0xbc,0x9d,0xe4,0x94,0xbe,0xf1,0x05,0x23,0xbd,
0x9a,0xcf,0x01,0x40,0x15,0x0f,0x90,0x3e,0x13,0x32,0x36,0xbe,
0x58,0xde,0x77,0x3d,0x36,0x7b,0x14,0xbe,0x0b,0x4e,0x7c,0x3d,
0x71,0x15,0x16,0xbe,0x56,0xff,0x38,0x3e,0x98,0x20,0x63,0x3d,
0xe4,0x1e,0x5f,0xbf,0x48,0x2f,0x90,0xbd,0x96,0x7f,0x29,0x3e,
0x51,0xe7,0x45,0xbe,0x15,0xdf,0xb6,0x3e,0x29,0x09,0x91,0x3e,
0xe7,0xb1,0x49,0x3e,0xb4,0x0c,0xd5,0xbd,0xbe,0x4f,0x22,0x3e,
0x72,0xc3,0xb7,0xbc,0xc8,0x62,0x0c,0xbd,0xe8,0x48,0xbb,0x3e,
0xe2,0x89,0x62,0xc0,0x20,0x28,0xb0,0xbf,0x5c,0x61,0x57,0xbe,
0x25,0x9d,0xc0,0x3d,0xc7,0x9b,0xa1,0xbe,0x08,0xff,0xc7,0x3d,
0xaa,0xa0,0x39,0x3e,0xf0,0xb9,0xa4,0xbe,0xb8,0xd0,0xe1,0x3d,
0x1a,0x75,0x3f,0x3e,0x4c,0x47,0xe9,0xbb,0x8d,0x0c,0x2e,0xc0,
0xbf,0x95,0xa8,0x3e,0x53,0x34,0x88,0x3e,0x23,0xe2,0x81,0xbe,
0x38,0x26,0x67,0xbd,0xe3,0x8b,0x9a,0x3a,0x6d,0x17,0x28,0xbe,
0xf4,0x99,0xf2,0xbd,0x53,0xac,0xa2,0x3e,0x66,0xe0,0xe0,0x3f,
0x8d,0xe9,0x5e,0xbe,0xec,0xf7,0x9d,0xbd,0x1b,0x73,0xf7,0x3e,
0xf0,0x16,0x03,0x3e,0xf0,0x63,0xaa,0x3d,0x10,0xaf,0x52,0xbe,
0xaa,0x28,0x09,0xbe,0xc8,0xbb,0x86,0xbd,0xcf,0x2d,0x42,0xbd,
0x47,0x92,0x3a,0xbe,0x2a,0xa6,0xf4,0x3d,0x02,0xba,0x9a,0xbd,
0xd5,0xbf,0x2c,0x3e,0xe0,0x46,0x7c,0x3c,0x1b,0x6e,0x23,0xbd,
0x30,0xa2,0xb7,0xbd,0x67,0x5c,0x32,0xbe,0x80,0x1f,0xa5,0x3d,
0x12,0x1a,0x98,0xbd,0x50,0x20,0xa4,0x3c,0xfb,0x99,0x92,0xbe,
0x69,0x95,0x86,0xbe,0x4c,0xd5,0x90,0xbe,0x2f,0x36,0x1d,0x3e,
0xae,0x5a,0xe1,0x3d,0x53,0x23,0x54,0xbe,0x4d,0xa8,0x94,0x3e,
0x8f,0x67,0x1e,0xbe,0x58,0x1a,0xad,0xbd,0x95,0x78,0x41,0x3d,
0x10,0x8b,0x12,0x3e,0x93,0xc1,0x3b,0xbd,0x05,0x51,0xac,0x3e,
0x90,0xf9,0xdd,0xbc,0xf6,0x45,0xa9,0xbc,0x37,0x07,0xa8,0xbe,
0x89,0x22,0x3a,0x3e,0x79,0x18,0x85,0x3e,0xf5,0x67,0x23,0x3e,
0x1a,0x5b,0x0b,0x3e,0x43,0x5d,0xb2,0x3e,0x20,0x2b,0x02,0xbd,
0x1a,0xc0,0xaa,0xbe,0x6a,0xb9,0x1f,0x3e,0x38,0x0b,0x8b,0x3d,
0xdc,0x47,0x8e,0xbd,0x5b,0x3b,0x7c,0xbe,0xe8,0xec,0xb4,0xbd,
0x2b,0xd2,0x56,0xbe,0x37,0xce,0xa8,0x3e,0x6d,0xb6,0xae,0x3e,
0xd8,0x7f,0xd1,0xbd,0x93,0xfa,0x91,0x3e,0x07,0xbb,0x46,0xbe,
0x34,0x29,0x5c,0xbe,0x00,0xcc,0xb9,0x39,0xf2,0x0c,0x60,0xbe,
0x15,0x07,0x8f,0xbe,0x40,0x39,0x84,0xbd,0x85,0x6b,0x14,0xbe,
0xfc,0x75,0x51,0xbe,0x8d,0x3e,0x83,0x3e,0xed,0x97,0xa5,0x3e,
0x54,0xc2,0xa6,0xbd,0xf8,0xb2,0x13,0x3e,0x10,0x2f,0xa1,0xbe,
0x56,0xc7,0xfd,0xbd,0xe5,0xcd,0xa5,0xbe,0x06,0x3e,0x32,0x3e,
0x6b,0x11,0x85,0x3e,0x9a,0xfc,0x44,0x3e,0x97,0x43,0x29,0xbe,
0x2f,0xc9,0xfb,0x3e,0x90,0x74,0xcd,0x3c,0xbf,0x8e,0x20,0xbe,
0x70,0x0d,0x21,0xbc,0xbc,0x46,0xcf,0x3b,0x9d,0xd0,0xb2,0xbe,
0xd7,0x76,0x62,0xbc,0xb8,0x4a,0x34,0x3d,0x95,0xa4,0x80,0xbe,
0x45,0xc5,0xad,0xbe,0x1f,0x6a,0xc5,0x3c,0x0e,0xf1,0x9e,0xbe,
0x90,0xf4,0xb3,0xbc,0x00,0x2d,0x22,0xbd,0x28,0x65,0x3a,0xbe,
0xaf,0xb0,0x83,0xbf,0x16,0x66,0xaa,0xbe,0x78,0x0a,0xa9,0xbe,
0x00,0x5d,0xae,0x3d,0xbe,0x7c,0xaf,0xbe,0xe0,0xab,0xc8,0xbd,
0xa8,0x9a,0xb8,0x3e,0xb8,0x08,0x73,0xbd,0xf1,0xb4,0xa9,0xbf,
0xb9,0xd3,0x50,0xbe,0x88,0x76,0xd5,0x3d,0x64,0x01,0x75,0xbf,
0xaa,0xa9,0xb8,0x3e,0xe0,0xbe,0x03,0xbe,0x61,0x28,0x53,0xc0,
0xcc,0x5e,0x86,0x3e,0x70,0x64,0xb4,0xbd,0x4d,0x52,0x4e,0x3e,
0x70,0xc9,0xe6,0x3c,0xc9,0xa3,0x87,0xbe,0x0d,0x3c,0x8b,0x3e,
0xc7,0x69,0x91,0xbe,0x22,0xfb,0x20,0xbe,0x23,0xdc,0xa3,0xbd,
0x50,0x64,0x9a,0xbd,0x08,0x9d,0xdd,0xbd,0x8f,0x2e,0x8f,0xbe,
0x74,0x9c,0x2b,0xbd,0xc9,0x49,0xae,0x3e,0x59,0x67,0x35,0xbe,
0xf1,0x40,0x13,0xbe,0x73,0x2e,0x92,0xbe,0x8e,0x3c,0x20,0xbe,
0x2d,0x4d,0xb9,0x3d,0x0c,0x41,0x88,0xbd,0xd9,0xd1,0x1d,0xbe,
0x28,0xb2,0x91,0x3e,0x28,0xc0,0xa0,0xbd,0x14,0xea,0x89,0x3e,
0xf4,0x14,0xa3,0x3d,0xdb,0x74,0x18,0x3e,0xdc,0x8d,0x83,0xbe,
0x2e,0x31,0xa6,0xbe,0xeb,0x3e,0xaf,0xbe,0xd0,0x45,0xaf,0xbe,
0x63,0x9a,0x38,0x3e,0x1a,0x9a,0x9b,0x3e,0x75,0x1e,0x7e,0xbd,
0x00,0x00,0x06,0x00,0x08,0x00,0x04,0x00,0x06,0x00,0x00,0x00,
0x04,0x00,0x00,0x00,0x40,0x00,0x00,0x00,0x0e,0xfe,0x8f,0x3b,
0x60,0xd5,0x8d,0x3e,0x18,0x20,0x5d,0xbe,0x77,0x4d,0x52,0x3f,
0xa9,0x39,0xed,0xbf,0x3f,0x48,0x12,0x3f,0xd4,0x85,0x5e,0xc0,
0x54,0xe9,0x34,0x3e,0x20,0x15,0x3c,0x3d,0x26,0x21,0x47,0x3f,
0xe4,0x4c,0x79,0x3f,0xac,0xda,0x97,0xbf,0x28,0xfa,0x63,0xbe,
0xe0,0xb2,0x5a,0x3d,0xb5,0x84,0x2e,0xc0,0x7b,0x33,0xb2,0xbe,
0x40,0xfb,0xff,0xff,0x44,0xfb,0xff,0xff,0x0f,0x00,0x00,0x00,
0x4d,0x4c,0x49,0x52,0x20,0x43,0x6f,0x6e,0x76,0x65,0x72,0x74,
0x65,0x64,0x2e,0x00,0x01,0x00,0x00,0x00,0x14,0x00,0x00,0x00,
0x00,0x00,0x0e,0x00,0x18,0x00,0x14,0x00,0x10,0x00,0x0c,0x00,
0x08,0x00,0x04,0x00,0x0e,0x00,0x00,0x00,0x14,0x00,0x00,0x00,
0x1c,0x00,0x00,0x00,0xd8,0x00,0x00,0x00,0xdc,0x00,0x00,0x00,
0xe0,0x00,0x00,0x00,0x04,0x00,0x00,0x00,0x6d,0x61,0x69,0x6e,
0x00,0x00,0x00,0x00,0x03,0x00,0x00,0x00,0x80,0x00,0x00,0x00,
0x38,0x00,0x00,0x00,0x04,0x00,0x00,0x00,0x9a,0xff,0xff,0xff,
0x10,0x00,0x00,0x00,0x00,0x00,0x00,0x08,0x0c,0x00,0x00,0x00,
0x10,0x00,0x00,0x00,0xbc,0xfb,0xff,0xff,0x01,0x00,0x00,0x00,
0x09,0x00,0x00,0x00,0x03,0x00,0x00,0x00,0x08,0x00,0x00,0x00,
0x01,0x00,0x00,0x00,0x03,0x00,0x00,0x00,0xca,0xff,0xff,0xff,
0x10,0x00,0x00,0x00,0x00,0x00,0x00,0x08,0x10,0x00,0x00,0x00,
0x14,0x00,0x00,0x00,0xba,0xff,0xff,0xff,0x00,0x00,0x00,0x01,
0x01,0x00,0x00,0x00,0x08,0x00,0x00,0x00,0x03,0x00,0x00,0x00,
0x07,0x00,0x00,0x00,0x02,0x00,0x00,0x00,0x04,0x00,0x00,0x00,
0x00,0x00,0x0e,0x00,0x16,0x00,0x00,0x00,0x10,0x00,0x0c,0x00,
0x0b,0x00,0x04,0x00,0x0e,0x00,0x00,0x00,0x18,0x00,0x00,0x00,
0x00,0x00,0x00,0x08,0x18,0x00,0x00,0x00,0x1c,0x00,0x00,0x00,
0x00,0x00,0x06,0x00,0x08,0x00,0x07,0x00,0x06,0x00,0x00,0x00,
0x00,0x00,0x00,0x01,0x01,0x00,0x00,0x00,0x07,0x00,0x00,0x00,
0x03,0x00,0x00,0x00,0x00,0x00,0x00,0x00,0x06,0x00,0x00,0x00,
0x05,0x00,0x00,0x00,0x01,0x00,0x00,0x00,0x09,0x00,0x00,0x00,
0x01,0x00,0x00,0x00,0x00,0x00,0x00,0x00,0x0a,0x00,0x00,0x00,
0x6c,0x03,0x00,0x00,0x14,0x03,0x00,0x00,0xbc,0x02,0x00,0x00,
0x80,0x02,0x00,0x00,0x28,0x02,0x00,0x00,0xd4,0x01,0x00,0x00,
0x88,0x01,0x00,0x00,0xf8,0x00,0x00,0x00,0x60,0x00,0x00,0x00,
0x04,0x00,0x00,0x00,0xd2,0xfc,0xff,0xff,0x00,0x00,0x00,0x01,
0x14,0x00,0x00,0x00,0x1c,0x00,0x00,0x00,0x1c,0x00,0x00,0x00,
0x0a,0x00,0x00,0x00,0x34,0x00,0x00,0x00,0x02,0x00,0x00,0x00,
0xff,0xff,0xff,0xff,0x01,0x00,0x00,0x00,0xbc,0xfc,0xff,0xff,
0x1b,0x00,0x00,0x00,0x53,0x74,0x61,0x74,0x65,0x66,0x75,0x6c,
0x50,0x61,0x72,0x74,0x69,0x74,0x69,0x6f,0x6e,0x65,0x64,0x43,
0x61,0x6c,0x6c,0x5f,0x31,0x3a,0x30,0x00,0x02,0x00,0x00,0x00,
0x01,0x00,0x00,0x00,0x01,0x00,0x00,0x00,0x2a,0xfd,0xff,0xff,
0x00,0x00,0x00,0x01,0x14,0x00,0x00,0x00,0x1c,0x00,0x00,0x00,
0x1c,0x00,0x00,0x00,0x09,0x00,0x00,0x00,0x70,0x00,0x00,0x00,
0x02,0x00,0x00,0x00,0xff,0xff,0xff,0xff,0x10,0x00,0x00,0x00,
0x14,0xfd,0xff,0xff,0x54,0x00,0x00,0x00,0x73,0x65,0x71,0x75,
0x65,0x6e,0x74,0x69,0x61,0x6c,0x5f,0x31,0x2f,0x64,0x65,0x6e,
0x73,0x65,0x5f,0x31,0x5f,0x32,0x2f,0x4d,0x61,0x74,0x4d,0x75,
0x6c,0x3b,0x73,0x65,0x71,0x75,0x65,0x6e,0x74,0x69,0x61,0x6c,
0x5f,0x31,0x2f,0x64,0x65,0x6e,0x73,0x65,0x5f,0x31,0x5f,0x32,
0x2f,0x52,0x65,0x6c,0x75,0x3b,0x73,0x65,0x71,0x75,0x65,0x6e,
0x74,0x69,0x61,0x6c,0x5f,0x31,0x2f,0x64,0x65,0x6e,0x73,0x65,
0x5f,0x31,0x5f,0x32,0x2f,0x41,0x64,0x64,0x00,0x00,0x00,0x00,
0x02,0x00,0x00,0x00,0x01,0x00,0x00,0x00,0x10,0x00,0x00,0x00,
0xbe,0xfd,0xff,0xff,0x00,0x00,0x00,0x01,0x14,0x00,0x00,0x00,
0x1c,0x00,0x00,0x00,0x1c,0x00,0x00,0x00,0x08,0x00,0x00,0x00,
0x68,0x00,0x00,0x00,0x02,0x00,0x00,0x00,0xff,0xff,0xff,0xff,
0x20,0x00,0x00,0x00,0xa8,0xfd,0xff,0xff,0x4e,0x00,0x00,0x00,
0x73,0x65,0x71,0x75,0x65,0x6e,0x74,0x69,0x61,0x6c,0x5f,0x31,
0x2f,0x64,0x65,0x6e,0x73,0x65,0x5f,0x31,0x2f,0x4d,0x61,0x74,
0x4d,0x75,0x6c,0x3b,0x73,0x65,0x71,0x75,0x65,0x6e,0x74,0x69,
0x61,0x6c,0x5f,0x31,0x2f,0x64,0x65,0x6e,0x73,0x65,0x5f,0x31,
0x2f,0x52,0x65,0x6c,0x75,0x3b,0x73,0x65,0x71,0x75,0x65,0x6e,
0x74,0x69,0x61,0x6c,0x5f,0x31,0x2f,0x64,0x65,0x6e,0x73,0x65,
0x5f,0x31,0x2f,0x41,0x64,0x64,0x00,0x00,0x02,0x00,0x00,0x00,
0x01,0x00,0x00,0x00,0x20,0x00,0x00,0x00,0x9e,0xfe,0xff,0xff,
0x00,0x00,0x00,0x01,0x10,0x00,0x00,0x00,0x10,0x00,0x00,0x00,
0x07,0x00,0x00,0x00,0x28,0x00,0x00,0x00,0x24,0xfe,0xff,0xff,
0x1b,0x00,0x00,0x00,0x73,0x65,0x71,0x75,0x65,0x6e,0x74,0x69,
0x61,0x6c,0x5f,0x31,0x2f,0x64,0x65,0x6e,0x73,0x65,0x5f,0x31,
0x2f,0x4d,0x61,0x74,0x4d,0x75,0x6c,0x00,0x02,0x00,0x00,0x00,
0x20,0x00,0x00,0x00,0x01,0x00,0x00,0x00,0xe6,0xfe,0xff,0xff,
0x00,0x00,0x00,0x01,0x10,0x00,0x00,0x00,0x10,0x00,0x00,0x00,
0x06,0x00,0x00,0x00,0x34,0x00,0x00,0x00,0x6c,0xfe,0xff,0xff,
0x27,0x00,0x00,0x00,0x73,0x65,0x71,0x75,0x65,0x6e,0x74,0x69,
0x61,0x6c,0x5f,0x31,0x2f,0x64,0x65,0x6e,0x73,0x65,0x5f,0x31,
0x2f,0x41,0x64,0x64,0x2f,0x52,0x65,0x61,0x64,0x56,0x61,0x72,
0x69,0x61,0x62,0x6c,0x65,0x4f,0x70,0x00,0x01,0x00,0x00,0x00,
0x20,0x00,0x00,0x00,0x36,0xff,0xff,0xff,0x00,0x00,0x00,0x01,
0x10,0x00,0x00,0x00,0x10,0x00,0x00,0x00,0x05,0x00,0x00,0x00,
0x38,0x00,0x00,0x00,0xbc,0xfe,0xff,0xff,0x29,0x00,0x00,0x00,
0x73,0x65,0x71,0x75,0x65,0x6e,0x74,0x69,0x61,0x6c,0x5f,0x31,
0x2f,0x64,0x65,0x6e,0x73,0x65,0x5f,0x31,0x5f,0x32,0x2f,0x41,
0x64,0x64,0x2f,0x52,0x65,0x61,0x64,0x56,0x61,0x72,0x69,0x61,
0x62,0x6c,0x65,0x4f,0x70,0x00,0x00,0x00,0x01,0x00,0x00,0x00,
0x10,0x00,0x00,0x00,0x8a,0xff,0xff,0xff,0x00,0x00,0x00,0x01,
0x10,0x00,0x00,0x00,0x10,0x00,0x00,0x00,0x04,0x00,0x00,0x00,
0x1c,0x00,0x00,0x00,0x10,0xff,0xff,0xff,0x0f,0x00,0x00,0x00,
0x61,0x72,0x69,0x74,0x68,0x2e,0x63,0x6f,0x6e,0x73,0x74,0x61,
0x6e,0x74,0x32,0x00,0x01,0x00,0x00,0x00,0x01,0x00,0x00,0x00,
0xc2,0xff,0xff,0xff,0x00,0x00,0x00,0x01,0x10,0x00,0x00,0x00,
0x10,0x00,0x00,0x00,0x03,0x00,0x00,0x00,0x1c,0x00,0x00,0x00,
0x48,0xff,0xff,0xff,0x0f,0x00,0x00,0x00,0x61,0x72,0x69,0x74,
0x68,0x2e,0x63,0x6f,0x6e,0x73,0x74,0x61,0x6e,0x74,0x31,0x00,
0x02,0x00,0x00,0x00,0x10,0x00,0x00,0x00,0x20,0x00,0x00,0x00,
0x00,0x00,0x16,0x00,0x18,0x00,0x14,0x00,0x00,0x00,0x10,0x00,
0x0c,0x00,0x08,0x00,0x00,0x00,0x00,0x00,0x00,0x00,0x07,0x00,
0x16,0x00,0x00,0x00,0x00,0x00,0x00,0x01,0x10,0x00,0x00,0x00,
0x10,0x00,0x00,0x00,0x02,0x00,0x00,0x00,0x1c,0x00,0x00,0x00,
0x9c,0xff,0xff,0xff,0x0e,0x00,0x00,0x00,0x61,0x72,0x69,0x74,
0x68,0x2e,0x63,0x6f,0x6e,0x73,0x74,0x61,0x6e,0x74,0x00,0x00,
0x02,0x00,0x00,0x00,0x01,0x00,0x00,0x00,0x10,0x00,0x00,0x00,
0x00,0x00,0x16,0x00,0x1c,0x00,0x18,0x00,0x00,0x00,0x14,0x00,
0x10,0x00,0x0c,0x00,0x00,0x00,0x00,0x00,0x08,0x00,0x07,0x00,
0x16,0x00,0x00,0x00,0x00,0x00,0x00,0x01,0x14,0x00,0x00,0x00,
0x20,0x00,0x00,0x00,0x20,0x00,0x00,0x00,0x01,0x00,0x00,0x00,
0x3c,0x00,0x00,0x00,0x02,0x00,0x00,0x00,0xff,0xff,0xff,0xff,
0x01,0x00,0x00,0x00,0x04,0x00,0x04,0x00,0x04,0x00,0x00,0x00,
0x1e,0x00,0x00,0x00,0x73,0x65,0x72,0x76,0x69,0x6e,0x67,0x5f,
0x64,0x65,0x66,0x61,0x75,0x6c,0x74,0x5f,0x6b,0x65,0x72,0x61,
0x73,0x5f,0x74,0x65,0x6e,0x73,0x6f,0x72,0x3a,0x30,0x00,0x00,
0x02,0x00,0x00,0x00,0x01,0x00,0x00,0x00,0x01,0x00,0x00,0x00,
0x01,0x00,0x00,0x00,0x10,0x00,0x00,0x00,0x0c,0x00,0x0c,0x00,
0x0b,0x00,0x00,0x00,0x00,0x00,0x04,0x00,0x0c,0x00,0x00,0x00,
0x09,0x00,0x00,0x00,0x00,0x00,0x00,0x09
};

#endif //CMPLX_SINE_2L_MODEL_TFLITE_H