#ifndef SINE_2L_MODEL_TFLITE_H
#define SINE_2L_MODEL_TFLITE_H

/*
 Author: Mouli Sankaran 
 CAUTION: This is an auto generated file.
 DO NOT EDIT OR MAKE ANY CHANGES TO IT.
 This model data was generated on Sun Sep 22 01:28:47 2024

 Tools used:
 Python:3.7.1 (default, Oct 28 2018, 08:39:03) [MSC v.1912 64 bit (AMD64)]
 Numpy:1.19.5
 TensorFlow:2.4.1
 Keras: 2.4.0

 Model details are:
 NUM_OF_EPOCHS = 900
 BATCH_SIZE    = 16
*/

const int DENSE1_SIZE = 32;
const int DENSE2_SIZE = 16;

unsigned int sine_2L_model_tflite_len = 4044;

// Since the size is 4044 for this model the Tensor arena size needs to be
#define TENSOR_ARENA_SIZE 2*1024

unsigned char sine_2L_model_tflite[] = {
0x1c,0x00,0x00,0x00,0x54,0x46,0x4c,0x33,0x14,0x00,0x20,0x00,
0x04,0x00,0x08,0x00,0x0c,0x00,0x10,0x00,0x14,0x00,0x00,0x00,
0x18,0x00,0x1c,0x00,0x14,0x00,0x00,0x00,0x03,0x00,0x00,0x00,
0x18,0x00,0x00,0x00,0x1c,0x00,0x00,0x00,0xa8,0x00,0x00,0x00,
0x1c,0x00,0x00,0x00,0x50,0x00,0x00,0x00,0x48,0x00,0x00,0x00,
0x01,0x00,0x00,0x00,0xc4,0x02,0x00,0x00,0x01,0x00,0x00,0x00,
0xb0,0x00,0x00,0x00,0x0c,0x00,0x00,0x00,0x78,0x0f,0x00,0x00,
0x74,0x0f,0x00,0x00,0x18,0x0e,0x00,0x00,0x60,0x0d,0x00,0x00,
0xf0,0x0c,0x00,0x00,0x1c,0x0c,0x00,0x00,0xc8,0x03,0x00,0x00,
0x34,0x03,0x00,0x00,0x58,0x0f,0x00,0x00,0x54,0x0f,0x00,0x00,
0x50,0x0f,0x00,0x00,0x3c,0x00,0x00,0x00,0x00,0x00,0x00,0x00,
0x01,0x00,0x00,0x00,0x0c,0x00,0x00,0x00,0x08,0x00,0x0c,0x00,
0x04,0x00,0x08,0x00,0x08,0x00,0x00,0x00,0x08,0x00,0x00,0x00,
0x0b,0x00,0x00,0x00,0x13,0x00,0x00,0x00,0x6d,0x69,0x6e,0x5f,
0x72,0x75,0x6e,0x74,0x69,0x6d,0x65,0x5f,0x76,0x65,0x72,0x73,
0x69,0x6f,0x6e,0x00,0x4e,0xf2,0xff,0xff,0x04,0x00,0x00,0x00,
0x10,0x00,0x00,0x00,0x31,0x2e,0x35,0x2e,0x30,0x00,0x00,0x00,
0x00,0x00,0x00,0x00,0x00,0x00,0x00,0x00,0x0f,0x00,0x00,0x00,
0x4d,0x4c,0x49,0x52,0x20,0x43,0x6f,0x6e,0x76,0x65,0x72,0x74,
0x65,0x64,0x2e,0x00,0x00,0x00,0x0e,0x00,0x18,0x00,0x04,0x00,
0x08,0x00,0x0c,0x00,0x10,0x00,0x14,0x00,0x0e,0x00,0x00,0x00,
0x14,0x00,0x00,0x00,0x3c,0x00,0x00,0x00,0x40,0x00,0x00,0x00,
0x44,0x00,0x00,0x00,0x50,0x00,0x00,0x00,0x0a,0x00,0x00,0x00,
0x68,0x0e,0x00,0x00,0xf4,0x0d,0x00,0x00,0xec,0x0c,0x00,0x00,
0x40,0x0c,0x00,0x00,0xe8,0x0b,0x00,0x00,0x14,0x0b,0x00,0x00,
0xc0,0x02,0x00,0x00,0xe4,0x01,0x00,0x00,0xec,0x00,0x00,0x00,
0x60,0x00,0x00,0x00,0x01,0x00,0x00,0x00,0x00,0x00,0x00,0x00,
0x01,0x00,0x00,0x00,0x09,0x00,0x00,0x00,0x03,0x00,0x00,0x00,
0x6c,0x01,0x00,0x00,0x98,0x00,0x00,0x00,0x10,0x00,0x00,0x00,
0x04,0x00,0x00,0x00,0x6d,0x61,0x69,0x6e,0x00,0x00,0x00,0x00,
0x8a,0xff,0xff,0xff,0x00,0x00,0x00,0x08,0x18,0x00,0x00,0x00,
0x0c,0x00,0x00,0x00,0x04,0x00,0x00,0x00,0xb8,0xf1,0xff,0xff,
0x01,0x00,0x00,0x00,0x09,0x00,0x00,0x00,0x03,0x00,0x00,0x00,
0x08,0x00,0x00,0x00,0x06,0x00,0x00,0x00,0x03,0x00,0x00,0x00,
0x30,0xf2,0xff,0xff,0x14,0x00,0x00,0x00,0x0a,0x00,0x00,0x00,
0x24,0x00,0x00,0x00,0x30,0x00,0x00,0x00,0x10,0x00,0x00,0x00,
0x02,0x00,0x00,0x00,0x01,0x00,0x00,0x00,0x01,0x00,0x00,0x00,
0x02,0x00,0x00,0x00,0xff,0xff,0xff,0xff,0x01,0x00,0x00,0x00,
0x08,0x00,0x00,0x00,0x49,0x64,0x65,0x6e,0x74,0x69,0x74,0x79,
0x00,0x00,0x00,0x00,0x78,0xf3,0xff,0xff,0x00,0x00,0x0e,0x00,
0x14,0x00,0x00,0x00,0x08,0x00,0x0c,0x00,0x07,0x00,0x10,0x00,
0x0e,0x00,0x00,0x00,0x00,0x00,0x00,0x08,0x1c,0x00,0x00,0x00,
0x10,0x00,0x00,0x00,0x04,0x00,0x00,0x00,0x2e,0xff,0xff,0xff,
0x00,0x00,0x00,0x01,0x01,0x00,0x00,0x00,0x08,0x00,0x00,0x00,
0x03,0x00,0x00,0x00,0x07,0x00,0x00,0x00,0x05,0x00,0x00,0x00,
0x02,0x00,0x00,0x00,0xb8,0xf2,0xff,0xff,0x14,0x00,0x00,0x00,
0x09,0x00,0x00,0x00,0x24,0x00,0x00,0x00,0x78,0x00,0x00,0x00,
0x10,0x00,0x00,0x00,0x02,0x00,0x00,0x00,0x01,0x00,0x00,0x00,
0x10,0x00,0x00,0x00,0x02,0x00,0x00,0x00,0xff,0xff,0xff,0xff,
0x10,0x00,0x00,0x00,0x52,0x00,0x00,0x00,0x73,0x65,0x71,0x75,
0x65,0x6e,0x74,0x69,0x61,0x6c,0x5f,0x32,0x2f,0x64,0x65,0x6e,
0x73,0x65,0x5f,0x37,0x2f,0x4d,0x61,0x74,0x4d,0x75,0x6c,0x3b,
0x73,0x65,0x71,0x75,0x65,0x6e,0x74,0x69,0x61,0x6c,0x5f,0x32,
0x2f,0x64,0x65,0x6e,0x73,0x65,0x5f,0x37,0x2f,0x52,0x65,0x6c,
0x75,0x3b,0x73,0x65,0x71,0x75,0x65,0x6e,0x74,0x69,0x61,0x6c,
0x5f,0x32,0x2f,0x64,0x65,0x6e,0x73,0x65,0x5f,0x37,0x2f,0x42,
0x69,0x61,0x73,0x41,0x64,0x64,0x00,0x00,0x48,0xf4,0xff,0xff,
0x00,0x00,0x0e,0x00,0x16,0x00,0x00,0x00,0x08,0x00,0x0c,0x00,
0x07,0x00,0x10,0x00,0x0e,0x00,0x00,0x00,0x00,0x00,0x00,0x08,
0x24,0x00,0x00,0x00,0x18,0x00,0x00,0x00,0x0c,0x00,0x00,0x00,
0x00,0x00,0x06,0x00,0x08,0x00,0x07,0x00,0x06,0x00,0x00,0x00,
0x00,0x00,0x00,0x01,0x01,0x00,0x00,0x00,0x07,0x00,0x00,0x00,
0x03,0x00,0x00,0x00,0x00,0x00,0x00,0x00,0x04,0x00,0x00,0x00,
0x01,0x00,0x00,0x00,0x0c,0x00,0x10,0x00,0x0b,0x00,0x00,0x00,
0x0c,0x00,0x04,0x00,0x0c,0x00,0x00,0x00,0x09,0x00,0x00,0x00,
0x00,0x00,0x00,0x09,0x01,0x00,0x00,0x00,0xac,0xf3,0xff,0xff,
0x14,0x00,0x00,0x00,0x08,0x00,0x00,0x00,0x24,0x00,0x00,0x00,
0x78,0x00,0x00,0x00,0x10,0x00,0x00,0x00,0x02,0x00,0x00,0x00,
0x01,0x00,0x00,0x00,0x20,0x00,0x00,0x00,0x02,0x00,0x00,0x00,
0xff,0xff,0xff,0xff,0x20,0x00,0x00,0x00,0x52,0x00,0x00,0x00,
0x73,0x65,0x71,0x75,0x65,0x6e,0x74,0x69,0x61,0x6c,0x5f,0x32,
0x2f,0x64,0x65,0x6e,0x73,0x65,0x5f,0x36,0x2f,0x4d,0x61,0x74,
0x4d,0x75,0x6c,0x3b,0x73,0x65,0x71,0x75,0x65,0x6e,0x74,0x69,
0x61,0x6c,0x5f,0x32,0x2f,0x64,0x65,0x6e,0x73,0x65,0x5f,0x36,
0x2f,0x52,0x65,0x6c,0x75,0x3b,0x73,0x65,0x71,0x75,0x65,0x6e,
0x74,0x69,0x61,0x6c,0x5f,0x32,0x2f,0x64,0x65,0x6e,0x73,0x65,
0x5f,0x36,0x2f,0x42,0x69,0x61,0x73,0x41,0x64,0x64,0x00,0x00,
0xd8,0xf3,0xff,0xff,0x36,0xf5,0xff,0xff,0x04,0x00,0x00,0x00,
0x40,0x00,0x00,0x00,0x11,0x2c,0x4d,0x3e,0x90,0xe4,0x2a,0x3e,
0x07,0xef,0x23,0x3f,0x79,0x97,0x63,0x3f,0xba,0xc4,0xe0,0xbe,
0xbd,0xa8,0xb9,0xbe,0xfc,0xe9,0xa7,0xbe,0x4a,0x24,0x2b,0xbe,
0x2c,0x95,0xd4,0x3e,0x80,0xb7,0x5c,0x3f,0x08,0xd6,0x58,0x3f,
0x9f,0xc8,0xa4,0x3e,0xc5,0xe7,0x47,0xbf,0x6f,0xf1,0x35,0x3f,
0x00,0xfe,0xe9,0x38,0xbf,0x44,0xcf,0x3a,0xee,0xf4,0xff,0xff,
0x10,0x00,0x00,0x00,0x07,0x00,0x00,0x00,0x14,0x00,0x00,0x00,
0x30,0x00,0x00,0x00,0x02,0x00,0x00,0x00,0x01,0x00,0x00,0x00,
0x10,0x00,0x00,0x00,0x1b,0x00,0x00,0x00,0x73,0x65,0x71,0x75,
0x65,0x6e,0x74,0x69,0x61,0x6c,0x5f,0x32,0x2f,0x64,0x65,0x6e,
0x73,0x65,0x5f,0x38,0x2f,0x4d,0x61,0x74,0x4d,0x75,0x6c,0x00,
0x68,0xf4,0xff,0xff,0xc6,0xf5,0xff,0xff,0x04,0x00,0x00,0x00,
0x00,0x08,0x00,0x00,0xe8,0xd3,0x10,0x3e,0xa0,0x19,0x62,0x3c,
0x49,0xdd,0x8e,0xbe,0x8d,0x4f,0x9d,0xbc,0x98,0x30,0x5f,0xbe,
0x38,0xbe,0x93,0x3d,0x58,0x74,0x27,0xbd,0x14,0xf7,0xfb,0x3d,
0xec,0xa6,0xf7,0x3d,0x1a,0x0e,0x4c,0x3e,0x3c,0xca,0xda,0xbd,
0xb8,0x13,0x84,0x3d,0x7a,0x80,0x0a,0x3e,0x40,0x4e,0x84,0xbe,
0x82,0x9f,0x55,0x3e,0xd8,0x84,0x8d,0x3d,0x15,0x5a,0x91,0x3e,
0x87,0x2d,0x9d,0x3e,0x0a,0xf5,0x2b,0x3e,0x95,0xd3,0xda,0x3d,
0x90,0x58,0x52,0x3d,0x9f,0x3d,0x69,0xbe,0x3d,0x01,0x8f,0xbe,
0x38,0x60,0xb7,0x3d,0xfa,0xcf,0x1b,0x3e,0xb0,0x32,0x23,0x3d,
0x2d,0xa1,0x42,0xbd,0xeb,0xbc,0x73,0x3e,0x11,0xb0,0x24,0xbe,
0x15,0x2a,0x95,0xbe,0xcd,0x51,0xb7,0xbe,0x9d,0xed,0x9b,0x3e,
0x6a,0xe7,0x2f,0x3e,0xd1,0xd6,0x79,0x3b,0x34,0xad,0x33,0xbe,
0xbd,0x8e,0xb0,0x3d,0x46,0x21,0x44,0xbc,0x67,0x98,0x5f,0xbe,
0x0a,0x25,0x6f,0x3e,0xa9,0x08,0xf3,0x3d,0x76,0xa4,0xb4,0xbe,
0x76,0xb7,0xfa,0xbd,0xb5,0xb6,0xe5,0xbd,0x40,0x2a,0xbc,0x3b,
0x63,0x7c,0x82,0xbe,0x6a,0xe9,0xa7,0x3e,0x8f,0x5d,0x69,0xbc,
0xc0,0x23,0xf3,0xbc,0x23,0xed,0x2a,0xbe,0x96,0x72,0x3f,0xbe,
0xca,0xbd,0x9a,0xbe,0x17,0x86,0xa1,0xbe,0x9a,0x79,0x4e,0xbe,
0x65,0x33,0x67,0xbe,0x57,0x54,0x89,0xbd,0xb0,0x61,0x60,0x3d,
0x32,0xce,0x2f,0x3e,0x35,0x6f,0xb0,0xbe,0xc6,0xf1,0x5f,0xbe,
0xfd,0x77,0x94,0xbe,0x73,0xdf,0x34,0xbd,0xaa,0x38,0xb9,0x3c,
0xd6,0xda,0x46,0xbd,0x7f,0x1e,0x69,0x3e,0xb1,0x84,0x95,0x3e,
0x11,0x5f,0x6b,0xbe,0x8f,0x52,0xa0,0xbe,0x6d,0x3b,0x34,0xbe,
0x01,0x99,0x22,0x3d,0x03,0xbd,0x99,0x3e,0xa9,0x9e,0x9f,0xbe,
0xd5,0xe9,0xeb,0xbe,0xe1,0x6e,0xa7,0x3e,0x71,0xd8,0x78,0xbe,
0xe4,0x08,0x5c,0xbe,0x40,0xb1,0x1d,0x3d,0x66,0xb9,0x7c,0x3e,
0xf5,0xec,0xf7,0xbe,0xee,0x5d,0x96,0x3e,0xad,0x8c,0xb2,0xbe,
0x90,0x9e,0x0b,0xbd,0x30,0x0d,0xd0,0xbd,0x58,0x20,0xf1,0x3d,
0x06,0xee,0x76,0xbe,0xaf,0xc5,0xbd,0xbe,0x02,0x97,0x9e,0x3e,
0x7a,0x54,0x85,0xbe,0xf6,0x94,0x7d,0xbe,0x13,0xe9,0x84,0x3e,
0x7e,0xd7,0x3a,0x3e,0x49,0x5c,0xa7,0x3e,0x7a,0x3d,0x5a,0x3e,
0xc3,0xb2,0x6d,0x3e,0x44,0x17,0xc9,0x3c,0xc4,0x08,0x41,0x3e,
0x40,0x91,0xc4,0xbe,0x80,0xa7,0x44,0xbc,0x2e,0x5f,0xa7,0x3e,
0xc5,0x93,0xa7,0x3e,0x4b,0xfd,0x18,0xbe,0x99,0x37,0x05,0x3c,
0xb3,0x2b,0x9b,0xbe,0xd7,0x09,0xad,0xbe,0x40,0x1e,0xe9,0x3e,
0x3c,0x47,0xc4,0x3d,0xf0,0x4c,0x86,0xbc,0x7b,0x13,0x81,0xbd,
0xea,0x1b,0x3c,0x3e,0x40,0x90,0x5d,0xbc,0x28,0x2e,0x8c,0x3e,
0xe8,0xe4,0xfb,0xbd,0x7e,0xb9,0x01,0xbe,0x91,0x78,0xa1,0xbe,
0x30,0x46,0xd2,0x3d,0x3a,0x3b,0x28,0x3e,0x8b,0x34,0x9d,0x3f,
0xb0,0x2d,0x4a,0xbe,0x5e,0x66,0x2a,0x3d,0x3f,0x49,0x19,0x3e,
0xf9,0x06,0x1b,0x3e,0x26,0xd8,0x71,0x3e,0xa0,0xe4,0x5f,0xbc,
0x20,0x9e,0xef,0xbe,0xe8,0xc7,0x5c,0xbf,0x74,0xe9,0x16,0xbe,
0x53,0xf7,0x8c,0x3e,0xc0,0xdc,0x92,0x3e,0x1c,0xc2,0x5c,0xbd,
0x65,0xeb,0xa5,0x3e,0xa3,0x18,0xe5,0x3d,0x28,0x2a,0x99,0xbe,
0x2b,0x56,0x6d,0xbe,0x04,0x46,0x8c,0xbd,0x63,0x05,0xaf,0x3e,
0xcc,0x5b,0xea,0x3d,0x14,0x5a,0x1d,0xbf,0xe8,0x69,0xf0,0x3d,
0x22,0xd5,0x8c,0xbe,0x32,0xc6,0x66,0x3e,0x10,0x35,0xe7,0x3c,
0xd9,0x9b,0x03,0xbe,0x50,0xae,0x03,0x3e,0x93,0xde,0x1a,0x3e,
0x7e,0x1b,0x9b,0xbe,0x12,0x40,0x64,0x3e,0x42,0x29,0x2c,0x3e,
0x40,0xf8,0x93,0x3c,0xa8,0x44,0x3d,0xbe,0x39,0x66,0x37,0x3f,
0x4e,0xf4,0x5d,0xbe,0x6f,0xea,0xb7,0x3d,0x32,0xc5,0xa0,0xbd,
0x5e,0xa7,0xb0,0xbe,0xb0,0xa0,0xf6,0x3c,0x4e,0x99,0xb4,0x3e,
0xab,0x2e,0x23,0x3e,0xb2,0x97,0x67,0x3e,0xb8,0x97,0xf4,0xbc,
0xba,0x46,0xf3,0xbe,0x1d,0x5d,0x20,0x3e,0xc2,0xf6,0x24,0x3e,
0xa3,0x45,0x46,0x3e,0x35,0xf2,0x32,0xbd,0xde,0x87,0x8d,0x3e,
0x90,0xce,0xfe,0x3d,0x70,0x29,0x59,0x3d,0xba,0xc5,0x51,0x3e,
0xa2,0x3d,0x3e,0xbe,0xfc,0x2e,0xb8,0xbd,0xd8,0x12,0x8f,0xbd,
0xe1,0xff,0xbd,0x3d,0x3f,0xd8,0xb4,0x3e,0x66,0xe5,0x2f,0xbe,
0xd9,0x2d,0x29,0xbe,0xae,0x8c,0x8b,0x3e,0xbe,0x50,0x4e,0xbe,
0x4a,0xc5,0x90,0xbe,0x66,0x47,0x51,0x3e,0x57,0xb4,0xa7,0xbe,
0x04,0x3a,0x99,0xbf,0xc8,0xa0,0xa8,0x3e,0x88,0x83,0x8a,0x3e,
0x72,0x22,0x98,0x3e,0xd4,0x9b,0xb7,0xbc,0x38,0xc1,0x63,0xbe,
0x42,0x91,0x7a,0x3e,0x3d,0xfa,0xa6,0x3e,0x96,0x96,0xe5,0x3d,
0x92,0xc6,0xdf,0x3d,0xbb,0x62,0x7f,0xbe,0x67,0xe3,0xa0,0x3e,
0x58,0x85,0x90,0xbd,0xae,0xc5,0x1c,0x3e,0xba,0x99,0x4e,0x3e,
0xe3,0x66,0xb3,0x3e,0x62,0x2d,0x29,0x3e,0x60,0x86,0x71,0xbd,
0xa5,0xd9,0x8f,0x3e,0x5f,0x8f,0x88,0x3e,0x04,0xe8,0x42,0xbe,
0x50,0xb3,0x4b,0xbe,0xec,0x39,0xd1,0xbd,0xfc,0x30,0x89,0x3d,
0x26,0x51,0xef,0xbd,0x60,0xb8,0x25,0xbd,0x78,0xd8,0x11,0x3d,
0x7f,0x91,0x6e,0xbe,0xaf,0xaf,0x8a,0x3e,0xa1,0x0d,0x85,0x3e,
0x80,0x82,0xee,0x3d,0x40,0x59,0xed,0x3d,0x70,0xd3,0x99,0xbe,
0x3c,0xcf,0x81,0xbe,0x99,0xdd,0x7f,0xbe,0x1d,0xd6,0x0c,0xbe,
0x1e,0xd6,0x9c,0xbe,0xfb,0x1d,0x21,0xbe,0xc0,0xc9,0x91,0xbb,
0xe7,0x43,0x94,0x3e,0xf1,0x64,0x7c,0xbe,0xc7,0xba,0xa6,0xbe,
0x88,0x60,0x99,0x3d,0xe2,0x20,0x02,0xbe,0x48,0x2b,0xbb,0x3d,
0x26,0x3a,0x1e,0xbe,0xb6,0xf0,0x58,0x3e,0xf0,0xf9,0x89,0xbc,
0x58,0xe6,0x67,0xbe,0x1a,0x6d,0x2f,0xbe,0x4f,0x99,0x87,0xbe,
0x8e,0x27,0x17,0x3e,0xd1,0x7d,0x90,0x3e,0x56,0x7b,0x38,0x3e,
0x20,0x3f,0x3c,0x3c,0xb8,0x3e,0x06,0x3d,0x06,0x62,0x4f,0x3e,
0xfb,0xcd,0x1d,0xbe,0x82,0xdf,0x4c,0x3e,0xe8,0x5c,0xfa,0x3d,
0x40,0x39,0x90,0x3c,0xaa,0x82,0x5f,0x3e,0x13,0x29,0x4f,0xbe,
0x24,0x9a,0xf1,0x3d,0xd2,0x65,0xaf,0xbe,0x60,0x2b,0x3c,0xbd,
0xdc,0x92,0x9b,0x3d,0x8f,0xe5,0x58,0xbe,0x18,0x92,0x05,0xbe,
0x9b,0xa0,0x45,0xbe,0xb7,0xc7,0x80,0xbe,0x60,0x9c,0xc6,0xbd,
0xe2,0xdf,0x4e,0x3e,0x6d,0xa7,0x83,0xbe,0xa8,0x6d,0x5a,0xbd,
0x60,0xbd,0xa6,0x3c,0x50,0xf8,0x58,0x3d,0x28,0x05,0x27,0xbd,
0xe6,0x80,0x46,0x3e,0xfe,0x2f,0x98,0xbe,0x90,0xb3,0x57,0xbd,
0xa1,0x7f,0xaf,0xbe,0xf0,0xe2,0xdf,0x3d,0xde,0xe1,0x0c,0x3e,
0xfe,0x6e,0x6c,0xbe,0xaf,0x0e,0x91,0x3e,0x40,0xa2,0x01,0x3c,
0xa8,0x3b,0x64,0xbe,0xda,0x93,0x66,0x3e,0x04,0xf0,0x46,0xbe,
0x71,0x8a,0x34,0xbe,0x7c,0x80,0x4c,0xbe,0x62,0xf9,0x83,0xbe,
0x90,0xf9,0x23,0xbd,0x5a,0x82,0x5c,0x3e,0x8e,0x99,0x7f,0x3e,
0x38,0x99,0x0f,0x3e,0xca,0xe9,0x70,0x3e,0xd2,0x18,0x86,0xbe,
0x4b,0x39,0x86,0x3e,0xbc,0xaf,0x91,0x3d,0xf0,0xe3,0x5c,0x3d,
0x7e,0x0a,0x61,0x3e,0xae,0x62,0x50,0x3e,0x32,0x4d,0x33,0xbe,
0xb8,0x83,0x46,0xbe,0x60,0x99,0x14,0x3d,0x00,0x20,0xb9,0xb9,
0x40,0x90,0x8e,0xbd,0x14,0x47,0x94,0xbd,0x23,0xbd,0xef,0xbd,
0xa3,0xab,0x3f,0x3e,0xd0,0x03,0xa1,0xbd,0xdf,0xf0,0x9a,0xbe,
0x2f,0xeb,0x94,0x3e,0xbe,0x8a,0xe0,0xbd,0x83,0xb9,0x20,0x3e,
0xcf,0x46,0x59,0xbe,0xa4,0x55,0xd7,0x3d,0x5e,0xdf,0x73,0x3d,
0xee,0x4b,0x8c,0xbe,0x8e,0x31,0x19,0x3e,0x25,0x78,0x93,0x3d,
0x52,0xc7,0x76,0xbd,0x27,0x3a,0x9d,0xbe,0xea,0x0c,0x91,0xbe,
0xdc,0x4b,0xf0,0x3d,0xef,0x67,0x8b,0xbe,0x43,0x83,0x5e,0x3f,
0x29,0xdf,0xae,0x3d,0xd7,0x4b,0x9c,0x3e,0x57,0xc6,0xb4,0x3e,
0xae,0xf7,0x78,0xbe,0xc9,0x45,0x63,0xbe,0xe2,0xe7,0xec,0xbd,
0x6b,0x23,0x0f,0xbf,0xb3,0x04,0x07,0xbf,0xec,0xba,0xff,0xbe,
0xb6,0xed,0xea,0x3d,0xe6,0x1f,0xe9,0x3d,0xf6,0x78,0xcb,0x3d,
0xf6,0x56,0x1b,0x3e,0xb2,0xd6,0x1b,0xbd,0xd7,0x9d,0x17,0xbf,
0xdd,0x38,0x9d,0x3d,0x6a,0xbf,0x8f,0x3d,0x10,0x19,0xaa,0xbc,
0x96,0xa9,0xd8,0xbd,0x68,0x97,0x1f,0xbf,0x05,0xc5,0x89,0x3e,
0x70,0x2f,0xe3,0x3d,0x45,0xd0,0x3e,0x3e,0xc1,0x71,0x9e,0xbe,
0xd5,0x87,0xb0,0x3e,0x80,0x4e,0xd6,0xbe,0x1c,0x32,0x78,0x3e,
0x09,0x7d,0x09,0xbe,0x60,0x60,0x92,0xbd,0x7f,0x70,0xb3,0xbe,
0x0c,0xdf,0x7d,0xbe,0xbe,0x3d,0x42,0xbe,0x34,0x1b,0xbf,0xbe,
0x11,0x47,0x6b,0x3e,0xd3,0xb6,0xb4,0xbe,0x86,0xba,0xa6,0x3e,
0x88,0xf5,0x02,0xbd,0x67,0xe3,0x8c,0x3e,0x3d,0x6e,0x75,0x3e,
0x61,0xc0,0xd3,0x3e,0x2d,0x7b,0x5a,0x3d,0xef,0x6c,0xd9,0xbc,
0xe9,0x5c,0xe8,0xbc,0xbe,0x64,0x5c,0xbe,0x58,0x04,0xb8,0xbd,
0x3d,0x8f,0x84,0x3e,0xfd,0x2c,0x3b,0xbe,0x98,0x0a,0x8f,0xbe,
0x22,0x17,0x1c,0xbe,0x01,0x28,0xa7,0xbe,0xee,0x2d,0x3b,0x3e,
0x60,0x6e,0x89,0xbe,0x27,0x11,0x8a,0xbe,0x78,0x4e,0x22,0x3d,
0xfe,0xd0,0x4e,0x3e,0xe6,0x64,0x2c,0x3e,0x50,0xd3,0xa9,0xbd,
0xa8,0x12,0xa1,0xbe,0xa7,0xbe,0x9b,0xbe,0x09,0xf3,0x0d,0xbe,
0xcb,0x96,0xb3,0x3e,0xf8,0x93,0xc8,0x3d,0x69,0x40,0x83,0x3e,
0x3f,0x2d,0xa0,0x3e,0x07,0xcb,0x21,0xbe,0xbc,0xfe,0x07,0x3e,
0x6e,0x3b,0x91,0xbe,0xc0,0xc4,0x1e,0x3d,0xef,0x35,0x4b,0xbe,
0x5a,0xf4,0x59,0x3e,0xca,0x13,0x00,0x3e,0x9c,0x47,0xfe,0xbd,
0x59,0x14,0x1c,0xbe,0x09,0x4f,0x89,0x3d,0x1f,0x10,0x79,0x3d,
0x56,0x2f,0x2f,0x3e,0x69,0x22,0x88,0x3e,0xb5,0x31,0x90,0x3e,
0x58,0xa5,0x0c,0xbe,0x23,0xe1,0x27,0xbf,0xa6,0x3a,0xaf,0xbe,
0x36,0x50,0x36,0x3e,0xda,0x35,0x47,0x3e,0xd0,0xdd,0xde,0xbe,
0x2b,0x16,0xa1,0x3e,0x8d,0xc4,0x90,0x3e,0xa2,0x82,0x0a,0x3f,
0x21,0x29,0x9d,0x3e,0x37,0x86,0x87,0x3e,0xe3,0x9e,0x19,0xbf,
0x5f,0x76,0x83,0x3d,0x28,0xf2,0x87,0xbd,0x99,0x0b,0x9a,0xbe,
0xe0,0x5d,0x6f,0x3d,0x2f,0xb8,0x98,0x3e,0xe5,0xfa,0x0f,0xbe,
0xf9,0x63,0x52,0x3f,0x09,0xfb,0x39,0xbf,0xa7,0xac,0x0d,0x3c,
0xdb,0xd0,0x31,0xbf,0x03,0x1c,0x8c,0xbe,0x48,0x1e,0x72,0xbe,
0x40,0x9c,0x16,0x3f,0xc5,0x73,0x06,0x3f,0x8a,0xf3,0xae,0x3e,
0xd1,0xae,0xd6,0x3e,0x09,0x1a,0x3a,0xbf,0x22,0x5b,0xe0,0xbc,
0x39,0xa5,0x3d,0xbe,0xb3,0xed,0xb1,0xbd,0x59,0xe8,0xec,0xbe,
0xf2,0xcc,0x96,0x3d,0x72,0x7a,0x15,0x3e,0xa2,0x93,0x78,0xbe,
0xb8,0x83,0x01,0xbd,0x95,0x51,0xe7,0xbe,0x69,0xa9,0xa7,0x3e,
0x28,0xb1,0xb7,0x3d,0xce,0xe3,0x9b,0xbe,0x80,0x09,0x55,0xbb,
0x88,0x55,0x04,0xbe,0x2b,0x62,0xdb,0xbe,0x9d,0xfd,0x6e,0x3e,
0x51,0xeb,0x5e,0xbe,0x60,0xfb,0x9b,0x3d,0x92,0xe1,0xac,0xbe,
0xb2,0xe0,0x4c,0x3e,0x55,0x54,0x29,0xbe,0x5f,0xb1,0xed,0xbe,
0x25,0x89,0xbf,0x3e,0x59,0x21,0xcd,0xbe,0xb7,0x3b,0x84,0xbe,
0xfe,0xe8,0x47,0x3e,0x23,0xb6,0x15,0xbe,0x6b,0x26,0x9d,0x3e,
0xf9,0x3f,0xe8,0x3e,0xa7,0xbb,0xde,0x3e,0x09,0xca,0xd4,0x3c,
0x57,0xf4,0x33,0x3e,0x51,0x1c,0xda,0xbe,0xf8,0xaa,0x2a,0x3d,
0x39,0xd7,0x93,0xbd,0x14,0xa6,0xaa,0xbe,0x1d,0x1a,0x03,0x3e,
0x6c,0x14,0x00,0xbe,0x24,0x8a,0x4c,0xbe,0x84,0x42,0x5a,0xbe,
0x83,0x55,0xca,0x3d,0x00,0xec,0x59,0xba,0xf4,0x3b,0x8c,0xbe,
0xca,0x08,0x82,0x3e,0xd0,0x87,0xc8,0xbd,0xf8,0x12,0x8d,0xbe,
0x9d,0xc5,0x35,0xbe,0x72,0x2d,0x20,0x3c,0xbe,0x1d,0x78,0xbe,
0x40,0xf1,0xe4,0x3d,0xb2,0x12,0x7b,0x3e,0xd3,0xb8,0x49,0xbe,
0x69,0x23,0x73,0x3f,0xc0,0xd6,0xa5,0x3d,0x9c,0xc8,0x3f,0x3e,
0x0c,0xcb,0x03,0xbe,0xab,0xe4,0x82,0x3e,0x13,0x13,0x5e,0xbe,
0x00,0x30,0x85,0x3c,0xfa,0x6e,0x7b,0xbe,0xa7,0x9b,0x57,0xbd,
0x79,0x5d,0xd4,0xbd,0x10,0x4a,0x10,0xba,0xaf,0xc6,0x0b,0xbe,
0x22,0xb1,0xb3,0x3e,0x02,0xc2,0x96,0xbe,0x29,0xf6,0x0c,0xbb,
0xa0,0xab,0x56,0xbe,0xb3,0x19,0x40,0x3e,0x38,0x6f,0x6a,0xbe,
0xa6,0xdd,0x4f,0x3e,0x99,0xb4,0x8b,0x3e,0x25,0x08,0xac,0xbe,
0x0a,0xbd,0x5e,0x3e,0x75,0x5b,0x42,0xbe,0xcc,0x4b,0x37,0xbe,
0x88,0xe1,0x11,0x3e,0x32,0xab,0xe1,0xbd,0x22,0x49,0x37,0xbe,
0xb4,0x06,0xf5,0xbd,0x74,0x30,0xb9,0x3d,0xc4,0x4e,0x91,0x3d,
0x7c,0x89,0x80,0xbd,0x2b,0x6c,0x95,0xbe,0x90,0x9d,0x82,0xbf,
0x38,0x3a,0x2a,0x3f,0x63,0x37,0x02,0x3d,0xd5,0xda,0x39,0xbe,
0x36,0x89,0x00,0xbe,0x3c,0x7f,0x80,0xbe,0x18,0x72,0xd6,0xbd,
0x36,0x10,0xb2,0x3e,0x04,0x10,0xa7,0xbd,0x96,0x8c,0x48,0xbe,
0x87,0x54,0x2c,0x3d,0xa9,0x3c,0x75,0x3e,0x09,0xda,0x5f,0xbe,
0x3e,0xfd,0xff,0xff,0x10,0x00,0x00,0x00,0x06,0x00,0x00,0x00,
0x14,0x00,0x00,0x00,0x30,0x00,0x00,0x00,0x02,0x00,0x00,0x00,
0x10,0x00,0x00,0x00,0x20,0x00,0x00,0x00,0x1b,0x00,0x00,0x00,
0x73,0x65,0x71,0x75,0x65,0x6e,0x74,0x69,0x61,0x6c,0x5f,0x32,
0x2f,0x64,0x65,0x6e,0x73,0x65,0x5f,0x37,0x2f,0x4d,0x61,0x74,
0x4d,0x75,0x6c,0x00,0xb8,0xfc,0xff,0xff,0x16,0xfe,0xff,0xff,
0x04,0x00,0x00,0x00,0x80,0x00,0x00,0x00,0xc0,0x97,0x41,0xbc,
0xba,0xca,0xd8,0x3c,0x84,0x85,0x6e,0x3e,0x1c,0xef,0x92,0x3e,
0xcc,0x3d,0x18,0x3d,0xbb,0xa7,0xcc,0xbe,0xb0,0x9d,0x0e,0xbe,
0xf3,0xa4,0x6d,0x3e,0xd0,0x09,0x10,0xbd,0x7e,0xad,0xd2,0xbe,
0xca,0x8e,0x88,0x3d,0xe8,0x20,0x2b,0xbd,0x06,0x7a,0x47,0xbe,
0x2d,0xaf,0x68,0x3e,0x56,0xa8,0x3f,0xbd,0xd0,0xf2,0xb5,0xbc,
0x40,0x26,0x3f,0xbd,0xc5,0xa3,0xb5,0xbe,0x60,0xa3,0xbc,0xbe,
0x70,0x9b,0xdb,0x3d,0x59,0xa1,0xc3,0xbe,0x3f,0xea,0x78,0x3e,
0x94,0x83,0xbf,0x3e,0xb3,0x76,0x00,0x3e,0x28,0x85,0x60,0xbe,
0x62,0x6e,0x8b,0xbe,0xd9,0xce,0xa9,0xbd,0x5f,0x7e,0x85,0xbd,
0x6a,0xbd,0x3e,0x3c,0xff,0x0a,0xb8,0x3d,0x9c,0xb2,0x62,0x3e,
0xf9,0xf2,0x30,0x3e,0x0e,0xfe,0xff,0xff,0x10,0x00,0x00,0x00,
0x05,0x00,0x00,0x00,0x14,0x00,0x00,0x00,0x30,0x00,0x00,0x00,
0x02,0x00,0x00,0x00,0x20,0x00,0x00,0x00,0x01,0x00,0x00,0x00,
0x1b,0x00,0x00,0x00,0x73,0x65,0x71,0x75,0x65,0x6e,0x74,0x69,
0x61,0x6c,0x5f,0x32,0x2f,0x64,0x65,0x6e,0x73,0x65,0x5f,0x36,
0x2f,0x4d,0x61,0x74,0x4d,0x75,0x6c,0x00,0x88,0xfd,0xff,0xff,
0xe6,0xfe,0xff,0xff,0x04,0x00,0x00,0x00,0x04,0x00,0x00,0x00,
0x74,0x43,0xc9,0xbe,0x62,0xfe,0xff,0xff,0x10,0x00,0x00,0x00,
0x04,0x00,0x00,0x00,0x10,0x00,0x00,0x00,0x48,0x00,0x00,0x00,
0x01,0x00,0x00,0x00,0x01,0x00,0x00,0x00,0x34,0x00,0x00,0x00,
0x73,0x65,0x71,0x75,0x65,0x6e,0x74,0x69,0x61,0x6c,0x5f,0x32,
0x2f,0x64,0x65,0x6e,0x73,0x65,0x5f,0x38,0x2f,0x42,0x69,0x61,
0x73,0x41,0x64,0x64,0x2f,0x52,0x65,0x61,0x64,0x56,0x61,0x72,
0x69,0x61,0x62,0x6c,0x65,0x4f,0x70,0x2f,0x72,0x65,0x73,0x6f,
0x75,0x72,0x63,0x65,0x00,0x00,0x00,0x00,0xf4,0xfd,0xff,0xff,
0x52,0xff,0xff,0xff,0x04,0x00,0x00,0x00,0x40,0x00,0x00,0x00,
0x79,0x9f,0x3d,0xbc,0xb2,0x94,0x5d,0xbc,0x1c,0x86,0x4f,0x3e,
0x98,0xcf,0x0e,0xbf,0xe7,0x87,0xeb,0x3d,0x54,0xea,0x3c,0x3e,
0x00,0x00,0x00,0x00,0x00,0x00,0x00,0x00,0x00,0x00,0x00,0x00,
0x16,0x75,0x0b,0xbf,0x26,0xbe,0x51,0x3e,0x0f,0x3d,0x4f,0xbb,
0xe9,0xcf,0x93,0x3e,0x12,0x43,0x6c,0x3e,0xcc,0x8e,0xce,0xbe,
0xe2,0x99,0xe8,0x3c,0x0a,0xff,0xff,0xff,0x10,0x00,0x00,0x00,
0x03,0x00,0x00,0x00,0x10,0x00,0x00,0x00,0x4c,0x00,0x00,0x00,
0x01,0x00,0x00,0x00,0x10,0x00,0x00,0x00,0x34,0x00,0x00,0x00,
0x73,0x65,0x71,0x75,0x65,0x6e,0x74,0x69,0x61,0x6c,0x5f,0x32,
0x2f,0x64,0x65,0x6e,0x73,0x65,0x5f,0x37,0x2f,0x42,0x69,0x61,
0x73,0x41,0x64,0x64,0x2f,0x52,0x65,0x61,0x64,0x56,0x61,0x72,
0x69,0x61,0x62,0x6c,0x65,0x4f,0x70,0x2f,0x72,0x65,0x73,0x6f,
0x75,0x72,0x63,0x65,0x00,0x00,0x00,0x00,0x04,0x00,0x06,0x00,
0x04,0x00,0x00,0x00,0x00,0x00,0x06,0x00,0x08,0x00,0x04,0x00,
0x06,0x00,0x00,0x00,0x04,0x00,0x00,0x00,0x80,0x00,0x00,0x00,
0x00,0x00,0x00,0x00,0x5d,0x95,0x2a,0xbe,0x82,0x54,0x3f,0xbf,
0xe2,0x0a,0x96,0x3d,0x66,0xa7,0x9d,0x3e,0x00,0x00,0x00,0x00,
0x00,0x00,0x00,0x00,0x85,0x40,0x11,0xbf,0x00,0x00,0x00,0x00,
0x00,0x00,0x00,0x00,0x03,0x2d,0x65,0xbd,0x00,0x00,0x00,0x00,
0x00,0x00,0x00,0x00,0x6b,0x33,0xe2,0xbe,0xa8,0xba,0x91,0x3e,
0x00,0x00,0x00,0x00,0x00,0x00,0x00,0x00,0x00,0x00,0x00,0x00,
0x00,0x00,0x00,0x00,0xda,0x85,0x05,0xbf,0x58,0x3c,0xaf,0x3d,
0xe2,0x73,0x93,0xbc,0xb5,0xaf,0xca,0xbe,0x8f,0xef,0x3e,0xbc,
0x00,0x00,0x00,0x00,0x00,0x00,0x00,0x00,0xb8,0xee,0x04,0x3f,
0x05,0xfc,0x24,0x3f,0x4f,0x63,0x34,0x3f,0xad,0x32,0xe4,0xbe,
0x80,0xf1,0x83,0xbc,0x35,0x38,0x96,0xbe,0x00,0x00,0x0e,0x00,
0x14,0x00,0x04,0x00,0x00,0x00,0x08,0x00,0x0c,0x00,0x10,0x00,
0x0e,0x00,0x00,0x00,0x10,0x00,0x00,0x00,0x02,0x00,0x00,0x00,
0x10,0x00,0x00,0x00,0x48,0x00,0x00,0x00,0x01,0x00,0x00,0x00,
0x20,0x00,0x00,0x00,0x34,0x00,0x00,0x00,0x73,0x65,0x71,0x75,
0x65,0x6e,0x74,0x69,0x61,0x6c,0x5f,0x32,0x2f,0x64,0x65,0x6e,
0x73,0x65,0x5f,0x36,0x2f,0x42,0x69,0x61,0x73,0x41,0x64,0x64,
0x2f,0x52,0x65,0x61,0x64,0x56,0x61,0x72,0x69,0x61,0x62,0x6c,
0x65,0x4f,0x70,0x2f,0x72,0x65,0x73,0x6f,0x75,0x72,0x63,0x65,
0x00,0x00,0x00,0x00,0xa0,0xff,0xff,0xff,0x14,0x00,0x18,0x00,
0x04,0x00,0x00,0x00,0x08,0x00,0x0c,0x00,0x10,0x00,0x00,0x00,
0x00,0x00,0x14,0x00,0x14,0x00,0x00,0x00,0x14,0x00,0x00,0x00,
0x01,0x00,0x00,0x00,0x24,0x00,0x00,0x00,0x34,0x00,0x00,0x00,
0x10,0x00,0x00,0x00,0x02,0x00,0x00,0x00,0x01,0x00,0x00,0x00,
0x01,0x00,0x00,0x00,0x02,0x00,0x00,0x00,0xff,0xff,0xff,0xff,
0x01,0x00,0x00,0x00,0x0d,0x00,0x00,0x00,0x64,0x65,0x6e,0x73,
0x65,0x5f,0x36,0x5f,0x69,0x6e,0x70,0x75,0x74,0x00,0x00,0x00,
0xfc,0xff,0xff,0xff,0x04,0x00,0x04,0x00,0x04,0x00,0x00,0x00

};

#endif //SINE_2L_MODEL_TFLITE_H